[PAD]
[UNK]
[MASK]
[CLS]
[SEP]
!
"
#
$
%
&
'
(
)
*
+
,
-
.
/
0
1
2
3
4
5
6
7
8
9
:
;
[unusued61]
=
[unusued62]
?
@
[
\
]
^
_
`
a
b
c
d
e
f
g
h
i
j
k
l
m
n
o
p
q
r
s
t
u
v
w
x
y
z
{
|
}
~
¡
¢
£
¥
[unusued63]
§
¨
[unusued64]
[unusued65]
«
¬
[unusued66]
¯
°
±
²
³
´
[unusued67]
¶
·
¹
º
»
¼
½
[unusued68]
¿
×
ß
æ
ð
÷
ø
þ
[unusued69]
[unusued70]
ı
[unusued71]
[unusued72]
œ
[unusued73]
ɐ
[unusued74]
[unusued75]
[unusued76]
[unusued77]
[unusued78]
ɪ
[unusued79]
[unusued80]
[unusued81]
[unusued82]
[unusued83]
[unusued84]
ʔ
[unusued85]
ʰ
ʲ
[unusued86]
[unusued87]
[unusued88]
[unusued89]
[unusued90]
[unusued91]
[unusued92]
[unusued93]
˙
˚
˜
α
[unusued94]
[unusued95]
[unusued96]
ε
[unusued97]
[unusued98]
[unusued99]
ι
¤
ƙ
ƪ
ƭ
ƴ
ɓ
π
ɗ
ɢ
σ
ɯ
υ
ɴ
ʀ
ʏ
ω
ʕ
ʖ
ʙ
ʜ
д
ʟ
ʳ
ʸ
˂
˃
ˊ
ˋ
н
ˎ
ˏ
˖
˗
т
˘
ˡ
ˢ
˳
ѕ
ғ
٫
ٱ
ᴀ
ᴄ
ᴅ
ᴇ
я
ᴊ
ᴋ
ᴍ
ᴏ
ө
ᴗ
ᴘ
ᴛ
ᴜ
ᴮ
ᴴ
ᴹ
ᴺ
ᵀ
ᵃ
ᵇ
ᵈ
ᵉ
ᵍ
ᵏ
ᵐ
ᵒ
ᵕ
ᵖ
ᵗ
ᵘ
ᶜ
ᶠ
‧
※
‾
‿
⁃
ⁱ
⁴
⁹
⁺
ⁿ
₊
،
₍
ء
ا
ب
ة
ت
ث
ج
ح
خ
د
ذ
ر
ز
س
ش
ص
ض
ط
ظ
ع
غ
ـ
ف
ق
ك
ل
م
ن
ه
و
ى
ي
₎
ₐ
⃝
⃟
ℂ
℅
⅓
ی
⅔
ↀ
←
↬
↳
↷
∀
∇
∘
∙
∩
∪
∴
≦
≧
⊙
⊰
⊱
⊹
⋆
⌣
⎯
ⓐ
ⓘ
ⓟ
─
━
│
┃
┅
┇
┈
┉
┊
┌
┍
┏
┐
┑
┓
└
┗
┘
┛
┳
┻
═
╔
╗
╚
╝
╥
╭
╮
╯
╰
╱
╲
╹
╾
▀
▂
▄
█
▏
░
▓
▔
▕
■
□
▬
►
▽
▿
◇
◉
○
◍
●
◔
◕
◜
◝
◞
◡
◦
★
☆
☛
☜
☞
☻
☽
♡
♤
♪
⚈
⚘
⛧
✄
✎
✑
✓
✗
‐
‑
–
—
―
✘
‘
’
‚
“
”
„
✦
†
✧
•
…
✩
✫
✭
‹
›
✯
⁰
₩
€
✰
₹
✵
✿
❀
↑
→
↓
∆
❁
√
❐
❖
❛
≤
❜
⋅
❝
❞
い
❥
❲
➛
か
➤
⠀
⠄
⸝
、
。
《
》
「
」
『
っ
つ
』
【
な
】
の
は
〒
〓
〔
〕
゛
゜
ヮ
ヽ
ㅅ
ㅋ
ㅎ
ㅜ
ㅠ
ㅡ
ㅤ
㉨
乐
哈
ア
回
イ
娱
彡
ꈍ
꒦
꒰
꒱
ク
꒳
꒷
サ
シ
ス
ꜱ
꧁
꧂
ﷻ
﷽
ツ
︑
ト
︵
︶
ノ
ハ
︿
フ
﹀
﹏
＊
ミ
－
．
／
；
？
＼
＾
ラ
＿
ル
｀
ロ
ａ
ｂ
ン
・
ー
一
ｄ
ｅ
万
ｇ
ｈ
ｉ
ｊ
ｋ
ｌ
ｍ
ｎ
ｏ
ｐ
ｒ
ｓ
ｔ
ｕ
｡
･
ﾉ
ﾐ
ﾟ
￣
𓆉
𓈈
𝐀
𝐁
𝐂
𝐃
𝐄
𝐅
𝐆
𝐇
𝐈
𝐉
𝐊
𝐋
𝐌
𝐍
𝐎
𝐏
𝐑
𝐒
𝐓
𝐔
𝐕
𝐖
𝐘
𝐚
𝐛
𝐜
𝐝
𝐞
𝐟
𝐠
𝐡
𝐢
𝐣
𝐤
𝐥
𝐦
𝐧
𝐨
𝐩
𝐫
𝐬
𝐭
𝐮
𝐯
𝐰
𝐱
𝐲
𝑎
𝑏
𝑑
𝑒
𝑔
𝑖
𝑘
𝑙
𝑚
𝑛
𝑜
𝑝
𝑟
𝑠
𝑡
𝑢
𝑦
𝑨
𝑩
𝑫
𝑬
𝑮
𝑯
𝑰
𝑱
𝑲
𝑳
𝑴
𝑵
𝑶
𝑷
𝑹
𝑺
𝑻
𝑼
𝑾
𝒀
子
𝒂
𝒃
𝒄
𝒅
𝒆
𝒈
𝒉
𝒊
𝒋
𝒌
𝒍
𝒎
𝒏
𝒐
𝒑
𝒓
𝒔
𝒕
𝒖
𝒘
𝒚
𝒶
𝒹
𝒽
𝒾
𝓀
𝓂
𝓃
𝓉
𝓊
𝓎
𝓜
𝓟
𝓢
𝓪
𝓫
𝓬
𝓭
𝓮
𝓱
𝓲
𝓶
𝓷
𝓸
𝓻
𝓼
𝓽
𝓾
𝔂
𝔸
𝔹
𝔻
𝔼
𝔽
𝕁
𝕂
𝕆
𝕊
𝕋
𝕌
𝕍
𝕒
𝕓
𝕔
𝕕
𝕖
𝕘
𝕙
日
𝕚
𝕜
𝕝
𝕞
𝕟
𝕠
𝕡
𝕣
𝕤
𝕥
𝕦
𝕪
𝕫
𝕶
𝕻
𝕽
𝕾
𝖆
𝖇
𝖉
𝖊
𝖋
𝖌
𝖍
𝖎
𝖏
𝖐
𝖑
𝖒
𝖓
𝖔
𝖕
𝖗
𝖘
𝖙
𝖚
𝖞
𝖺
𝗂
𝗔
𝗕
𝗖
𝗗
𝗘
𝗙
𝗚
𝗛
𝗜
𝗝
𝗞
𝗟
𝗠
𝗡
𝗢
𝗣
𝗥
𝗦
𝗧
𝗨
𝗩
𝗪
𝗬
生
𝗮
𝗯
𝗰
𝗱
𝗲
𝗳
𝗴
𝗵
𝗶
𝗷
𝗸
𝗹
𝗺
𝗻
神
𝗼
𝗽
𝗿
𝘀
𝘁
𝘂
𝘃
𝘄
𝘆
𝘇
𝘈
𝘉
𝘐
𝘔
𝘕
𝘚
𝘛
𝘢
𝘣
𝘤
𝘥
𝘦
𝘧
𝘨
𝘩
𝘪
𝘫
𝘬
𝘭
𝘮
𝘯
𝘰
𝘱
𝘳
𝘴
𝘵
𝘶
𝘷
𝘸
𝘺
𝘼
𝘽
𝘾
𝘿
𝙀
𝙁
𝙂
𝙃
𝙄
𝙅
𝙆
𝙇
𝙈
𝙉
𝙊
𝙋
𝙍
𝙎
𝙏
𝙐
𝙑
𝙒
𝙔
𝙖
𝙗
𝙘
𝙙
𝙚
𝙛
𝙜
𝙝
𝙞
𝙟
𝙠
𝙡
𝙢
𝙣
𝙤
𝙥
𝙧
𝙨
𝙩
𝙪
𝙫
𝙬
𝙮
𝙰
𝙱
𝙸
𝙺
𝙼
𝙽
𝚄
𝚊
𝚋
𝚌
𝚍
𝚎
𝚐
𝚑
𝚒
𝚓
𝚔
𝚕
𝚖
𝚗
𝚘
𝚙
𝚛
𝚜
𝚝
𝚞
ﷺ
𝟎
𝟏
𝟐
𝟑
𝟒
𝟓
𝟔
𝟕
𝟖
𝟗
𝟬
𝟭
𝟮
𝟯
𝟱
𝟵
🄿
🅳
🅴
🅷
🅸
🅽
🆁
🆂
🆃
🆄
🖒
🤌
！
（
）
，
：
🥲
￼
##o
##e
##t
##m
##l
##d
##r
##n
##a
##b
##g
##i
##p
##w
##k
##u
##s
##h
##0
##4
##6
##c
##y
##z
##2
##9
##j
##f
##°
##v
##7
##5
##±
##q
##x
##8
##3
##1
##ᅵ
##ᆸ
##ᄉ
##ᅮ
##ᆯ
##ᄋ
##ᅳ
##ᅡ
##ᄌ
##ᄒ
##ᄆ
##ا
##ن
##ى
##º
##ɗ
##ق
##م
##ي
##र
##┈
##𝘢
##ل
##ـ
##ه
##ذ
##ø
##د
##س
##𝘯
##サ
##ス
##ロ
##ー
##𝘛
##ン
##ク
##ラ
##𝙚
##シ
##𝙣
##ᅢ
##ᄂ
##ᅥ
##ᅯ
##ص
##ᅱ
##ᄇ
##ル
##ش
##ت
##ر
##ط
##ف
##𝙟
##𝙪
##𝙖
##𝙜
##ج
##ᆷ
##ᆫ
##α
##𝗽
##ω
##خ
##ك
##𝗴
##𝗿
##な
##い
##ع
##ة
##𝗮
##𝗱
##𝗲
##⠀
##н
##✩
##ㅤ
##ι
##𝘦
##𝘮
##𝘀
##𝘁
##𝗟
##𝚎
##𝚊
##𝗻
##ᅩ
##ᄅ
##ð
##ث
##و
##￼
##×
##𝘆
##𝘂
##𝗹
##т
##𝗔
##𝗥
##𝗡
##ᄃ
##ᄀ
##𝗧
##ظ
##𝗜
##บ
##ᆼ
##╥
##𝗢
##𝗣
##ᅧ
##ᅪ
##𝐲
##𝐨
##я
##¹
##ᵐ
##ア
##イ
##ト
##ᵃ
##ᵘ
##ม
##อ
##ง
##ส
##น
##ⁿ
##ⁱ
##♡
##ƪ
##ᆨ
##˘
##𝗺
##𝐠
##´
##υ
##𝐚
##𝐤
##д
##𝐫
##𝐭
##ب
##か
##𝚞
##𝚋
##ح
##𝚛
##ی
##𝚔
##𝗗
##ε
##𝗛
##æ
##フ
##ᅴ
##𝗙
##𝗖
##ʀ
##¬
##ᴜ
##ض
##ᴀ
##ɴ
##𝗦
##𝗘
##℅
##𝐬
##𝐞
##𝐦
##𝟵
##โ
##𝚒
##𝚝
##ı
##ʰ
##ㅠ
##𝐧
##ᅦ
##ᄑ
##𝐝
##𝐢
##𝘼
##𝘿
##𝙀
##𝐍
##𝐈
##𝐒
##𝐀
##𝐓
##ा
##𝐅
##🥲
##ᄎ
##³
##𝗶
##𝗵
##𝚕
##𝚜
##ค
##ก
##า
##ร
##ห
##ช
##ᄐ
##แ
##ด
##σ
##𝒾
##𝑜
##𝑎
##𝑝
##𝑖
##𝗯
##𝑙
##𝑛
##𝟗
##𝟎
##𝘩
##𝘨
##𝘵
##𝙊
##ハ
##𝙑
##𝒆
##𝒍
##𝐖
##ʲ
##ɪ
##ɐ
##𝐋
##𝒖
##⁰
##𝒌
##𝐡
##𝚖
##ᄏ
##ᅬ
##ز
##π
##ㅡ
##𝘃
##━
##𝘶
##𝘺
##✓
##ᆻ
##｀
##𝖎
##𝖘
##²
##𝖓
##𝐥
##𝐩
##غ
##𝙐
##𝙈
##ß
##𝙋
##𝗨
##𝗠
##▂
##¯
##𝙬
##𝙠
##𝙡
##ᆽ
##𝑲
##𝒊
##𝒔
##𝒂
##þ
##𝒉
##ว
##𝘄
##ಥ
##╰
##➤
##𝘰
##𝘥
##𝐮
##つ
##𝐑
##ᆺ
##𝐁
##𝗝
##𝓪
##の
##𝓷
##𝙞
##˚
##𝙥
##═
##𝒓
##𝒐
##っ
##𝒅
##𝒄
##は
##𝒕
##𝒚
##ʟ
##ᴇ
##𝟬
##𝟭
##ᄄ
##œ
##↷
##𝟔
##ء
##𝐰
##𝐜
##ᅭ
##⋅
##ツ
##𝘳
##𝘇
##𝐊
##ะ
##ป
##ย
##𝐘
##ヽ
##ᅨ
##𝓮
##𝓻
##ா
##𝘪
##ம
##ி
##𝙨
##𝙩
##𝙢
##𝙤
##⛧
##𝒎
##ミ
##ㅎ
##จ
##𝐔
##ு
##𝙧
##த
##☻
##𝙍
##𝙝
##𝙫
##𝗸
##ข
##𝘴
##𝔸
##𝐎
##ᅲ
##𝐌
##เ
##𝗼
##𝘬
##𝙙
##▬
##˃
##¼
##⚘
##𝐛
##ㅋ
##╱
##╹
##ᅣ
##𝙏
##ᵉ
##ᵇ
##ᵍ
##ʸ
##ʔ
##☆
##𝘸
##❝
##𝒏
##✦
##ᶜ
##ล
##พ
##ต
##ᴏ
##𝘭
##𝔼
##𝕊
##ப
##𝕆
##€
##ᵗ
##ᵒ
##▽
##￣
##ₐ
##𝒃
##ㅅ
##𝑢
##𝑔
##ノ
##𝒋
##→
##ท
##𝗕
##𝘷
##¨
##ச
##𝐣
##÷
##𝘣
##𝙘
##🖒
##𝗚
##𝙗
##𝑡
##𝑚
##ㅜ
##𝚗
##ʳ
##𝘐
##𝘕
##𝘈
##𝐄
##ﾟ
##𝙉
##𝙄
##½
##𝘾
##𝓲
##𝐟
##ｅ
##ｒ
##ｎ
##⃝
##⃟
##˂
##𝚑
##ʖ
##𝕖
##𝕟
##𝕥
##𝕚
##𝕘
##𝙇
##𝙔
##𝓼
##𝓽
##╗
##𝙃
##𝙆
##└
##𝕤
##𝒑
##❀
##✿
##𝖗
##𝑒
##𝑘
##ᵏ
##√
##𝗂
##𝖺
##𝐇
##𝐂
##★
##𝒶
##○
##𝓉
##↑
##𝓎
##๑
##↓
##¥
##ғ
##𝟐
##𝟏
##─
##ˢ
##¢
##𝚍
##ᄁ
##∆
##£
##𝚘
##╭
##⊱
##┊
##ａ
##╝
##≤
##𝐕
##𝙮
##ᄊ
##₩
##𝑺
##𝐃
##█
##𝑼
##𝑴
##˙
##►
##𝑨
##𝑫
##𝑰
##◦
##●
##❞
##∀
##an
##er
##en
##ar
##ang
##at
##ah
##al
##ak
di
##as
##am
##in
##em
se
men
##un
##kan
##ya
##el
##tu
yang
##ad
##si
ke
dan
##ap
##on
##ai
ber
##il
in
##eng
##is
##ik
ter
##ta
per
##ur
##ari
##us
##ag
##ing
##nya
##es
##um
##or
##bu
mem
##ti
##ul
##ara
##id
meng
##ir
##ada
##uk
##ek
##ga
##ol
##ung
##it
##akan
##asi
ini
un
dari
ad
##engan
dengan
##alam
##tuk
##et
##im
an
##alah
pen
mer
##ud
##ama
##ut
##om
dalam
untuk
pada
seb
##up
##eb
##ian
##aw
##ab
##ih
pem
pr
itu
##adi
##eh
##uh
##aj
##ia
##anya
##eg
tid
##per
tidak
adalah
##esi
##atan
##and
##se
##angan
##ay
##aya
##ain
##ok
##agai
##ter
mel
ju
##amp
##ed
##ukan
or
sel
tah
menj
peng
##aan
##ber
##tr
al
##elah
ol
mas
##but
20
##ali
bah
juga
##apat
kar
oleh
##atu
sem
tahun
kem
##ent
##end
sebagai
kep
##eka
meny
##pat
##ua
##wa
sek
ak
mereka
akan
##os
##ita
##isi
##ana
ind
##ata
##ant
##od
##ub
ata
##ｏ
orang
atau
ser
menjadi
##ati
19
##ika
##ong
##asa
##ep
##lah
##ac
##ena
##ot
##uan
##og
##ahan
bag
##amb
bar
kel
##ri
##usi
##op
pert
##any
memb
as
##aran
ap
tersebut
ia
ker
##angk
ar
##ib
##angg
##iri
ada
##anj
karena
##int
is
##ala
lain
mend
200
##ebih
##api
##inya
##alan
bel
neg
##alu
##ota
har
##ingg
telah
kon
##upakan
sa
##cara
dapat
merupakan
##emb
ag
##esia
satu
##ip
indon
lebih
##ikan
indonesia
dik
##asan
##apa
##esar
##𝕒
pend
##perti
sp
sej
##tas
##ew
seperti
saya
kita
kom
bis
##ilik
##udah
bahwa
##sa
dis
am
tim
pol
dil
##ᴊ
set
pas
su
pel
##oh
sebuah
##uar
berb
##ingga
tet
##akukan
##ungan
##ja
##anyak
saat
##akar
ang
menc
##ind
si
##aik
para
kepada
##ic
tak
ant
##asil
##gun
##ob
##ingk
##orang
berk
bisa
dip
mak
##ra
man
##asih
kec
tem
##𝔂
beb
kes
th
secara
##aja
ked
##aman
##onal
hal
##hir
##uj
pemb
sudah
##agi
dib
dia
##au
sed
ket
bi
negara
##ov
##da
pemer
par
nam
##osi
##awa
banyak
##iliki
sang
dit
setelah
besar
peny
hanya
seorang
bagian
da
kam
##arkan
anak
ben
bers
tan
##yar
um
##angkan
##unya
##akarta
baru
##erapa
fil
tr
##ch
beberapa
memiliki
hari
sen
war
##imp
##🆂
##🅴
des
kota
keb
dir
namun
dua
masih
##ᵖ
sep
terl
pemerint
##man
rum
st
##idup
ti
ut
##erah
ek
##gunakan
##apan
spesies
##atakan
##han
##00
##uran
terj
##tur
terb
harus
##ungk
##itas
ka
##ima
dem
##aku
seh
samp
dim
mar
pertama
##umlah
##akat
jakarta
re
pul
##ini
bagi
atas
kek
antara
##unan
201
wak
##orm
##emp
##ᇀ
sangat
pers
tent
kr
pe
salah
rumah
##ulan
##aga
ch
kemudian
##urut
##atkan
##eri
##ni
mul
member
memper
##anc
tetapi
##gi
##yat
##usia
mengh
##unia
##ingan
sebel
send
##uhan
en
##uti
##lam
##hadap
kor
sebelum
##den
diper
##ihat
##unj
##inan
##yarakat
ses
##gan
tingg
dunia
kata
##pr
ab
pern
berd
masyarakat
##awan
##tor
sama
terd
##aks
ketika
angg
pun
kh
nama
hingga
##arang
the
##ug
##utan
##angs
terhadap
ing
lagi
did
##entu
##iv
sendiri
##atang
sum
kemb
baik
ku
##itar
##asional
sis
##ili
berh
pemerintah
tempat
##uas
##engah
kali
daerah
sampai
jika
sur
serta
##tif
##ilan
##ina
##tan
##li
wil
##enal
##mas
menurut
mes
akhir
islam
berl
##usah
semua
selama
##arah
##ec
pal
desa
##itik
kembali
terjadi
kal
bert
hidup
membuat
il
buk
us
##ilih
bang
##ui
##ani
sekitar
seti
tentang
saja
din
air
##𝚙
so
te
aw
##ont
anda
##di
umum
kedua
##apkan
jalan
gen
ger
##anda
bukan
waktu
##na
keluar
##ensi
##ka
##inta
##le
##ayu
melakukan
apa
inter
##olog
dilakukan
lalu
maka
##ump
mah
##aikan
br
##┻
##aca
terk
belum
pes
##ayah
dep
sehingga
warga
sh
##ban
##uruh
##und
kami
##to
##era
film
mal
me
em
bu
##ᄍ
##bang
bahasa
##entara
##ukum
10
mendapat
##enc
sementara
anggota
##me
masa
tangg
ri
##iran
##mi
##angsung
manusia
bersama
##ju
sejak
wilayah
199
min
##do
##omp
##olah
barat
##aki
art
yaitu
##ulis
jawa
##antu
diri
suk
##eker
##anjang
keh
presiden
berp
##ila
pernah
##ahkan
tiga
##sia
lainnya
##egi
gr
mat
de
##𝕪
##ki
##lik
##amatan
##ow
##alui
##oleh
##𝓃
mus
la
hukum
18
##oy
perl
##etak
##ingkat
kap
##alis
kas
##ilai
##alnya
tapi
kur
##onom
suatu
##ʕ
tengah
##alia
##eli
selain
perk
##elas
##olong
##est
melalui
##annya
##ihak
##𝙅
seg
timur
bulan
##pa
##yah
setiap
berbagai
komp
##ungg
pl
tel
##asanya
##aksi
##unc
mulai
kl
amer
negeri
berm
##ris
memp
##oduk
im
sesu
##ans
li
##ori
allah
hasil
##af
##rop
pihak
menggunakan
tinggi
berj
of
##ungkin
res
##idikan
mener
##uduk
terp
##uda
##ting
##𝑠
##ibat
##ram
sul
##etah
pus
##akit
##ons
##uru
##oc
##tikan
terg
##ev
##teri
##utus
ac
mengg
##𝗰
##anan
##ʜ
tek
##awah
##mu
##𝒈
berada
perm
aku
amerika
kayu
mis
fr
agar
med
tetap
ma
kelas
##ikat
rp
##𝗩
##insi
sekali
12
sekolah
kabupaten
##ambil
selatan
kons
cer
biasanya
partai
##usan
kecamatan
kalau
##ij
band
##ologi
pros
##form
##awat
##ank
##ajar
sistem
##𝟖
##agian
bahkan
politik
##of
##la
hak
cuk
intern
tanah
##unjuk
##apai
##𝐱
sejumlah
termasuk
##engk
##arnya
tanggal
memberikan
##upun
kej
dih
disebut
seluruh
##ami
luar
and
bud
digunakan
sal
##eda
##atif
diter
paling
tu
at
##eter
tanpa
nasional
eks
tert
jumlah
pendidikan
kat
15
put
demikian
ik
sekarang
##wan
masalah
mungkin
##bit
ken
mengen
##ikasi
##ist
##ikut
##ig
##tua
##anjut
rak
cukup
mod
##akhir
mengatakan
##alkan
##uc
##idang
jadi
##mana
ters
memang
11
masing
diber
##engg
##ola
##auh
sy
kepala
##entuk
##akin
proses
up
##usahaan
fam
beras
##ard
##tian
pad
##𝖊
##ompok
##ulu
agama
und
##aian
makan
##agu
str
kecil
perusahaan
produk
el
ditem
dij
utara
##ode
##angka
kini
##𝖇
benar
terus
lap
##ilah
##𝖆
kasus
cara
utama
##aknya
masuk
##asis
polisi
##ubungan
##impin
melihat
##iter
bangsa
jam
##ember
mana
ins
##ma
karya
pusat
rakyat
keluarga
##ampu
##𝖌
keti
##𝖞
##abat
akhirnya
##isasi
##ej
begitu
dibu
##𝚓
##oid
##ekerja
##asar
korban
sebelumnya
ah
mil
##awasan
dew
sedang
buku
##ubah
bur
##tiv
##uli
##𝚌
ul
dr
pengh
bawah
pak
jen
langsung
lama
ru
uj
ob
gel
penc
prov
akibat
sebagian
##angi
ib
baca
bat
##asarkan
dic
univ
ibu
terdapat
bentuk
juta
##ea
##𝓭
maj
tuj
##antan
kelompok
tok
tur
sosi
##usus
sc
##aris
lok
pemain
famili
##ula
gun
ekonomi
menem
##unyai
ketua
##uni
##formasi
ingin
##umi
perlu
tekn
bl
##ᵕ
##disi
kum
sedangkan
bal
##𝓱
mempunyai
##ha
pan
##engar
bern
dig
##alat
##fa
khusus
awal
program
bad
##ekat
mampu
##ٱ
sumber
tergolong
##ender
kerja
perang
##ayaan
##╯
##𝗬
sah
##st
panjang
meningg
16
dikenal
penting
mengenai
provinsi
pula
penduduk
17
##tri
tamp
lemb
##akah
sk
##uari
menteri
##askan
##anggap
198
bagai
##upa
perd
jep
##ono
##tar
berasal
##tera
##isme
##ro
berikut
jer
penj
inggris
lagu
##yak
kamp
##ᴄ
musim
ilmu
##ublik
empat
##itan
##oda
000
14
##ᴛ
on
datang
com
perj
##fat
mencapai
id
sup
13
organ
##etahui
raja
##din
sil
jelas
mengaku
menyatakan
##aranya
##alami
##tim
pener
dar
##mad
##adaan
##eta
##lim
undang
berhasil
pet
depan
ir
terletak
ii
laut
##angkat
##angun
ok
##ˡ
##ɓ
dpr
kawasan
##araan
fak
##arik
##omb
perb
sering
##ira
sebesar
komun
##eksi
keraj
berdasarkan
##ꜱ
menyebabkan
anim
selalu
serikat
##uhi
wan
nya
##ond
##utu
gu
jepang
##uka
##emen
trans
30
##embangan
##ungsi
##ᴍ
jenis
alam
harga
##▄
sejarah
##ny
lab
rep
2009
pos
##atih
##bul
##aha
bahan
bidang
angk
kehidup
terakhir
kurang
##eks
gol
suara
##perasi
##ebut
##ort
##ura
berg
##▓
jar
sat
##hi
jauh
##ukung
nilai
kerajaan
##unt
had
##ail
surat
##ahir
seri
met
nov
tuhan
kol
mata
bersi
kondisi
##ci
##ilihan
##𝗳
kegi
sub
ji
##𝑟
sebab
lima
pemerintahan
hubungan
semakin
king
mendapatkan
##uncul
kegiatan
malam
dok
##udi
tubuh
ud
2008
##ku
kehidupan
mur
##unjukkan
##ual
perempuan
##ern
kant
to
aceh
tum
aj
tangan
hati
bekerja
adanya
rasa
le
bank
berbeda
acara
sw
ten
kend
##imb
keter
uang
tib
pasukan
wanita
kab
kad
##urkan
ped
sosial
sakit
pulau
sung
##dom
sesuai
pat
##ers
be
##𝑩
menerima
##atian
menyel
dasar
col
ram
##utusan
##air
197
muda
##andang
##alaman
asal
##anti
##fi
##tik
lingk
##uri
##ine
##isan
kapal
##𝘽
cal
muh
kan
##atur
biasa
kaum
bab
pember
mengalami
##eran
bagaimana
##buk
ur
##ril
bila
##ʏ
apakah
muncul
jan
##angga
ist
##ulai
belanda
tahu
ot
pasar
##ambah
##uatan
##erang
keber
##ikuti
##lo
tinggal
rek
sm
##asiswa
##eja
sungai
25
memas
badan
##fer
##ฟ
##pada
terc
##olak
for
tingkat
##𝓂
universitas
##░
seben
arth
it
##min
##𝘱
informasi
musik
196
boleh
barang
ribu
memberi
##𝘤
bumi
##res
##az
##utama
##ƙ
##nis
pt
##antai
##war
##epat
tiba
ng
##ikit
##obil
##anding
abad
ko
sesuatu
terdiri
tind
dirinya
lar
##re
mau
##uga
ny
sab
##bitkan
##𝙎
##tv
bermain
##ᴅ
sedikit
##enda
##uanya
sar
prof
##𝕙
perc
usaha
##usaha
sam
po
agus
##ho
kontr
##entukan
insec
##𝕦
##◉
internasional
##𝟯
misalnya
##𝕋
##apun
sin
dianggap
bak
##istr
##no
yak
ne
##𝒘
gereja
sebenarnya
menunjukkan
membawa
##oba
2007
mahasiswa
##isti
no
##andingan
##angunan
tujuan
##ator
dekat
terutama
bin
mad
lay
mobil
sempat
bernama
daripada
memer
mo
##rah
jerman
mengambil
##adilan
ras
meminta
perub
pembangunan
laki
##arti
cont
##ikir
##ampir
bantu
segera
af
jat
##𝓊
meskipun
##embang
##ry
muslim
ef
bun
batu
dana
ham
##aksa
kantor
belak
pi
rom
nom
##ly
##uhnya
tokoh
##ancis
21
##impinan
perubahan
sing
pin
##ongk
##ᴘ
perh
pesawat
##ilang
luas
##┓
##ᴋ
api
bay
mencari
##ela
##va
jawab
ketiga
budaya
ged
makanan
##abi
penyel
teg
jal
jiwa
##ey
##amanya
##ohon
##iman
##ungi
malay
##ajaran
##ation
album
##olusi
pand
lembaga
##gab
##ment
memen
posisi
##yataan
keputusan
udara
guru
##oran
2010
wakil
sik
organisasi
##encana
##ses
berarti
##emuan
eropa
##ɢ
militer
tug
klub
kerus
bo
##iaya
##umen
lingkungan
abd
##isah
merasa
##ahari
lahir
##asikan
persen
ro
##tuh
##irikan
##iz
media
##ukul
meski
dewan
##uju
hampir
yakni
##¤
mudah
##amat
##atus
ditemukan
new
pop
op
##ｄ
##ｌ
##oni
malaysia
##ko
contoh
ilmiah
berlangsung
##angkap
##acam
diterbitkan
industr
##ebr
keseh
gag
mengel
pertandingan
int
##aka
ayah
##akai
2006
umumnya
ruang
menuju
##oto
##ef
tradisi
banj
##angkah
##erta
##𝟑
pemimpin
belajar
##abu
mantan
kekuatan
bola
membantu
jum
##amanan
umat
##ไ
22
mu
pang
##𝙰
industri
kebij
##ongan
keadaan
##𝑦
##ilis
seni
bantuan
rah
jangan
ev
say
##ton
tni
gerakan
sebanyak
milik
##ach
##ca
##edi
pa
kesehatan
data
##gabung
unit
##atat
##anggung
24
tugas
##urn
del
kemen
##alahan
##ack
segala
##ikiran
bek
berubah
alat
kamu
ge
##anyakan
jalur
gl
agung
##elar
##ark
menemukan
aksi
##ord
keras
##◝
##nyata
matahari
ki
ternyata
##asilkan
kuat
##antung
##ambang
gedung
##eo
##abila
nas
ali
penulis
##inggu
diberikan
##ve
23
##erita
ayat
saud
##por
lokasi
mon
menyebut
##𝙛
##ajak
##aksanakan
##atas
car
##aji
##𝐯
stu
##isian
suku
##gaw
mati
##adar
apabila
195
##uasaan
##arga
alasan
cepat
##tugas
rat
buah
gamb
disi
tand
sas
##adakan
menulis
tulis
juli
dibuat
menit
##pl
##ess
mag
##𝙂
sumat
may
##ajah
##𝗪
juni
tertentu
##adian
beliau
teman
minyak
##✧
bertem
##uasa
##irim
melawan
##kah
tentu
upaya
kebijakan
januari
penyakit
tindakan
##ᵈ
tepat
##th
eng
##intang
##ｔ
september
##ｈ
persi
mew
jab
kun
##ｐ
mengikuti
100
kerusakan
bus
menik
##⁹
##ampuan
##uki
teknologi
##bar
wah
kalim
hutan
##land
sese
nomor
lip
resmi
tua
cerita
mei
calon
##ainkan
memilih
##lukan
daya
rata
menarik
##𝚐
##ell
penuh
##ass
##endah
gunung
laba
##epas
punya
sol
rel
##𝐆
desember
meninggal
peristiwa
berat
##tuhan
ya
pendek
sepanjang
##ibatkan
agustus
##su
april
dah
##ore
##arakan
cat
##ingkatkan
##ｋ
##te
##bangan
bangunan
##𝕣
terbaik
mengk
seseorang
batang
menjalan
pemilihan
kepol
hit
##ullah
raya
##alik
muhammad
oktober
##ill
kp
##ity
##mp
prancis
plan
inf
er
ikut
yah
krist
dimana
situ
kepolisian
uk
ed
perkembangan
2004
##𝕕
km
langkah
perjalan
ph
pertemuan
co
aktiv
pukul
fl
##aih
berjalan
##urus
##gus
kemampuan
##awi
maret
menolak
##jo
itulah
##uarkan
##ebar
##son
bali
##embangkan
arab
ahli
kul
gubern
walaupun
her
stasi
diketahui
kereta
##anto
##empatan
zaman
jender
27
##ᴺ
gubernur
##udul
sisi
##arat
terlalu
form
##ampaikan
es
##ekan
kesel
##ᴴ
enam
serangan
pasti
##𝕌
##ich
##ahal
por
kekuasaan
##tra
menging
jenderal
ide
##ajib
26
stasiun
##ce
setempat
##wak
november
terlihat
##inal
##𝔻
popul
##𝒽
inv
##inasi
##ainya
arah
terkait
##𝗷
sikap
berkata
2005
##oa
joh
pot
sus
28
##ftar
nabi
maupun
turun
keper
vi
pasal
sepak
dinas
operasi
pimpinan
kemungkinan
sun
##ez
##uskan
##atangan
rev
##angnya
ung
##all
##uman
##ens
##𝘧
siapa
##˖
50
##꒰
##osa
##uktur
padahal
##ulkan
rencana
india
##etahuan
peri
lem
republik
##ou
##tab
keamanan
naik
##ektif
asia
massa
manaj
perjalanan
##pati
membangun
##unuh
##tual
##ainan
##jid
kebutuhan
produksi
konf
pekerj
liga
tenaga
mand
##꒱
lew
soal
terkenal
mengetahui
berupa
##akkan
berusaha
gar
##𝗞
berkembang
hi
berita
##inc
##okok
komisi
penelitian
tot
prot
##po
prib
pap
meninggalkan
##ate
##usun
isra
##iptakan
kaki
kitab
ialah
sana
pekerjaan
merah
##𝟓
##aria
dibanding
##atis
studi
##aturan
kont
meningkatkan
##men
minggu
tar
##buatan
##sur
##╮
##ona
##ˋ
##ujud
bul
hab
perg
kalangan
pengetahuan
bisnis
kristen
##arian
##enang
bintang
pro
##𝕔
duk
ay
bandung
der
semb
san
selanjutnya
##𝕠
##lan
katanya
mili
kejadian
log
##qu
siap
pej
##otor
amb
biaya
meter
dulu
jaringan
##ade
##sis
membentuk
##ge
wib
senin
publik
hend
##one
darah
##ulang
##erd
##usnya
israel
liputan
tanda
##artemen
##𝖑
##iks
belakang
senjata
kematian
konsep
mark
kesempatan
##ungkan
angkatan
pengg
##oro
penggunaan
rabu
istilah
##𝖚
##arap
pekan
peran
rendah
##orkan
tengg
tip
##erahkan
putih
kak
sumatra
##iah
perp
##untut
pagi
##irkan
bir
prak
dimulai
februari
##abaya
silam
bebas
##evisi
##ust
##etapkan
##tion
sulit
wis
asp
tewas
##ast
##amu
tersangka
cinta
##unggu
##𝓸
##ilangan
##entingan
gam
mendukung
et
##inggi
kari
mendatang
gelar
ikan
##mal
terbesar
##ayan
menyer
bukti
disel
tentara
sebagaimana
29
##amin
go
##orong
##tic
surabaya
bes
yog
kamis
pergi
##𝓶
menghasilkan
##estasi
hid
##uma
##uter
den
##uf
##▏
tamb
kil
antaranya
leg
jo
##ｕ
00
##ork
##ty
##ｇ
##egang
##ｓ
pertanian
diberi
pantai
##┅
##inkan
inilah
##atnya
siswa
menjelaskan
ni
hot
banjir
##elang
sim
mor
##┉
justru
miliar
satunya
rus
italia
##okan
ex
##asaan
rasul
usia
##𝘫
mesin
menghadapi
ditulis
daftar
lewat
proy
##icara
sekaligus
##tup
saudara
##agang
pengadilan
##┘
ratusan
##agangan
ep
putra
anti
jabatan
tab
##anjian
bertemu
selasa
kepentingan
memperoleh
pah
##ˎ
huj
##esaikan
##umpang
pelatih
masjid
kasih
jumat
pasangan
##fikasi
perjanjian
asing
##kar
##𝑬
grup
##alisasi
istri
sifat
korup
mempr
pejabat
kampung
sebelah
lat
##angat
##ingkatan
laporan
##ron
televisi
##uang
yg
##intah
##mat
fi
##art
##yo
ujar
bergabung
##uangan
##entar
sud
saling
##ergi
by
##idik
vid
sini
buat
pengharga
cl
az
kew
pasi
korea
##erasi
##ukkan
##urun
pria
yes
##𝑹
40
##aruh
periode
diduga
kemenangan
penghargaan
##aksud
kendaraan
fungsi
bet
##engkap
31
pec
##ie
keuangan
2002
##ipta
petugas
proyek
teori
##av
bas
departemen
kadang
##ite
babak
strat
##ham
he
##＾
##atasan
pernyataan
keduanya
##edakan
2000
australia
lel
##ace
gad
##ba
panas
versi
##atikan
##anjutkan
##ayar
##ahanan
mengak
##itis
tulisan
kos
berlaku
non
modern
##ｉ
percaya
sulawesi
pengembangan
##atuan
##etik
demi
pesan
warna
unsur
pemil
##rik
meraih
gambar
con
##ret
##ѕ
##enti
##◡
radi
materi
sch
dikatakan
##utup
##wi
tadi
situs
kebanyakan
siang
aktif
##yakarta
##juangan
apal
dirilis
lapangan
faktor
post
tampil
##akter
##ex
tercatat
medan
dibangun
sabtu
rem
##oph
apalagi
div
##iring
##𝙸
jaya
bunga
ditu
##𝟮
##❛
2003
dokter
bap
##akaan
##⊙
benda
dom
was
rusia
tujuh
##adikan
##ampak
yogyakarta
berusia
gi
burung
pengel
abu
peserta
saham
model
##arapkan
##erak
mut
pribadi
perjuangan
perdagangan
##acara
##empat
listrik
##ᆾ
membuka
##ock
sambil
##amaan
##ganya
##𝟕
##ᒪ
##ᖇ
terh
rapat
##ᑎ
du
##uku
##iksa
terlibat
dikel
lihat
##ᗩ
hujan
##ht
##indah
##ajukan
peraturan
##arto
terbentuk
##ᖴ
petani
gagal
pertanya
##amkan
##andung
##🆁
temb
mempert
berakhir
pemilu
##𝕡
total
lahan
pandangan
hind
glob
melayu
##emi
##alahkan
stand
memutuskan
##edia
kemar
##aksanaan
##aporkan
karakter
rup
##ema
titik
aman
##alikan
kim
##ampung
##ahami
korupsi
##kin
teknik
terbuka
video
top
angka
##olongan
##dayaan
kisah
pohon
menya
imam
khususnya
##bah
cina
awalnya
sektor
##tt
gas
##adah
mic
##urahan
berc
memenuhi
ulang
meneg
##atasi
olah
jatuh
mengur
lokal
pendapat
ta
menikah
pu
##olik
bom
##■
##unjung
obat
meningkat
kesul
diambil
putri
tampak
ari
##hl
##by
##ne
##uddin
keg
##pp
pk
mencoba
perhatian
yud
##anji
berf
pil
yesus
buruk
##ulus
permainan
bant
kalimantan
didirikan
ajaran
polri
bersifat
##zi
##ten
dipr
##entang
##oduksi
pintu
dijadikan
##ʙ
##yi
##➛
seles
sidang
##antas
dahulu
##ase
hadir
dur
192
##ver
##omo
batas
##🤌
pelangg
bakal
berisi
membaca
##ilkan
penumpang
##awang
##zah
pur
##umkan
energi
yahudi
berdiri
##insip
##jek
berharap
pd
artinya
##her
##┏
taman
piala
##┛
##uat
internet
##┃
menger
pertanyaan
##onis
##tern
##za
##ayakan
##oritas
##uali
pilihan
##⁴
hitam
keker
keseluruhan
demokrasi
kira
##antara
konflik
antar
komputer
permukaan
##∩
##anyi
pengalaman
dukungan
##har
kelurahan
##onton
syar
perso
prinsip
##ampilan
kong
cab
##amai
diterima
##aim
##uruan
##agam
pemuda
mengapa
turut
sip
persoalan
sultan
catatan
##ji
pekerja
gaya
saw
##𝐉
nus
mengeluarkan
suci
hakim
pemilik
pid
nanti
status
gemp
balik
##ran
asi
##bi
aktivitas
hat
john
##ora
melip
##intas
500
kepad
##ihan
##˗
##anyol
cor
gus
kerana
alk
ha
memulai
teror
perbedaan
##ongkok
situasi
##ambat
puluhan
buruh
##enaran
murid
dat
##ｊ
istana
##udukan
##oli
##ational
komunikasi
##anjung
2011
##ith
sehari
kese
tanaman
nur
berper
tri
bup
##istik
tangga
dial
##jen
sd
profesi
menurun
selesai
##❁
direktur
cr
menciptakan
tradisional
malah
##𝖍
pembel
##jah
##tah
##nam
bertahan
##ei
##ales
struktur
menjaga
pelaku
bambang
##elis
##faatkan
meman
##𝑻
diperkirakan
prim
##𝑮
macam
##asakan
saksi
2012
sri
stadi
sukses
##ahankan
1999
sir
##nas
##adinya
amat
kehilangan
##pan
motor
red
pam
planet
dipakai
norm
kau
##amping
hotel
##♪
##ester
garis
menjabat
tari
comment
##𝑑
supaya
##tis
dimaksud
##𝕞
lanjut
suh
##uasai
##co
fasil
tiongkok
sebalik
##𝙁
bakar
pulang
##operasi
mun
pab
asli
menentukan
isu
##₊
sta
hilang
bandar
syari
##sh
##airan
yus
kot
##isis
elektr
suka
sesungguhnya
##ungguh
sya
##𝓾
##𝓬
##ambarkan
punc
##buat
cap
kenaikan
##rid
##itakan
bergerak
mendengar
tegas
web
meliputi
fir
##ein
##ikel
hew
##pun
perdana
uni
namanya
##engaruhi
dipimpin
admin
luka
kulit
kontrak
##𝖐
anaknya
pelaksanaan
roh
mengembangkan
##🅽
spanyol
berikutnya
dilihat
##🅳
sebaliknya
##🅸
dprd
pemeriksaan
emas
sl
anc
duduk
##ee
menimbulkan
semuanya
komunitas
##urat
##dak
disk
diam
seng
##akaran
##umumkan
##empuran
##𝑵
disebabkan
afrika
##𝑳
##𝘚
##ahu
##ebasan
nasi
##inginan
##ekaan
##eral
yo
35
pertempuran
##ulasi
##raf
##isk
suami
##port
tambahan
memasuki
menjadikan
##𝕝
##uluh
kompl
dibandingkan
leb
padang
##ino
kecuali
seder
tuan
peningkatan
reg
##rasi
membeli
pm
menyerang
##umsi
gempa
bb
individ
qur
aliran
##ayat
terpaksa
kemarin
yakin
menunggu
##asinya
sehar
poin
##𝟒
keterangan
##uji
halaman
papua
##ish
##⊹
##itasi
##les
keturunan
my
##uhkan
##ᐢ
##𝑯
dibawa
tang
pedagang
##antik
pela
sungguh
##asia
jasa
kebenaran
##arikan
jarak
##entikan
##✰
tahap
camp
##▿
kebudayaan
diharapkan
ataupun
kualitas
seharusnya
dilaksanakan
harapan
##ice
##istan
revolusi
45
fasilitas
##intaan
hewan
tom
##akuan
diperlukan
dewasa
##𝖕
##angkut
##amah
##awanan
##anye
2014
makin
ulama
mengakui
##if
mengirim
seks
delapan
menyebutkan
##ement
tenggara
vir
mit
jur
menang
fisik
wartawan
dol
2013
##uth
berjudul
##ps
##゜
##amakan
##❥
kand
##ografi
kerj
##anggil
adat
berkaitan
##ahas
mendirikan
pengaruh
##ᵀ
mengubah
metode
menyelesaikan
rad
##amatkan
##𝑷
administr
bangk
##bo
pelayanan
##╲
##iling
lin
keempat
melaksanakan
bayi
mpr
##uksi
semarang
diadakan
##𝖔
menganggap
wajah
kabar
##mati
##epatan
golongan
##de
akad
menjawab
lu
iii
lang
menuntut
bekas
##𝖏
pertahanan
##andi
##𝖙
ditemui
pemikiran
kekerasan
positif
##alang
##⌣
sid
pengan
artikel
##esan
##egah
##ｍ
penerbangan
sejauh
kenyataan
pikiran
##ancam
##aju
tv
isi
##get
ton
pb
##sik
abdul
##ue
menengah
##𝐏
final
layanan
peluang
ayahnya
##𝘉
mesir
##cayaan
##◇
tumbuh
##ane
##una
##enggarakan
oper
dj
mari
60
indah
isti
kelahiran
radio
##untungan
nat
kemerdekaan
mengandung
##ajari
digelar
##indak
do
manajemen
pajak
##rip
diny
##arn
mengan
katolik
semangat
juara
pasien
##♤
fer
##🆃
ts
ho
potensi
##ahun
tiap
tekan
dek
ukuran
singapura
uc
anggaran
tik
##┗
kop
##ital
pangeran
##ombang
cen
##iner
menyus
luk
taw
##𝖉
standar
disampaikan
gal
##ler
lengkap
global
prop
bencana
has
krisis
##ley
pertumbuhan
megaw
upacara
mengadakan
pelajaran
pokok
menjalankan
wal
pendukung
##𝕍
pengguna
menilai
tep
##oko
perkara
bupati
##anggu
fakultas
maju
##∪
prod
##ll
membutuhkan
##apatan
khas
##⠄
tidur
rob
##epon
kesi
memahami
memimpin
##jak
aspek
foto
pari
dita
karier
pelabuhan
terpilih
##entuan
##caya
vol
##urangan
takut
tertinggi
##adang
puncak
melainkan
##onia
tol
ahmad
##ner
##ium
menjalani
##tek
misi
def
keinginan
32
##umpulan
liv
merek
majalah
van
fo
kepercayaan
pabrik
##sel
##awatan
aturan
super
peg
teks
dokumen
engk
2015
##▀
fat
dihad
lakukan
##rat
##ediakan
##ukur
megawati
karyawan
sipil
wh
ditangkap
serupa
sederhana
##ajian
memakai
menyediakan
sekret
tun
uu
##mar
##ida
##fik
city
##ⓐ
melanjutkan
aparat
##wah
kris
hendak
sec
hel
##ⓟ
generasi
miskin
tata
komentar
##bert
htt
hukuman
##yu
membunuh
lump
##ii
sig
pola
guna
ribuan
sma
permintaan
ba
##ding
gab
##asilan
memenangkan
dimiliki
##tasi
penger
##uler
iz
##✯
menambahkan
ketingg
modal
##ck
peman
##∘
##ometer
##emat
##☞
ps
mempertahankan
bagus
##≧
huru
##emahan
##alian
menjelang
##awal
1998
peter
roma
kiri
##angani
mik
majelis
kuno
individu
kepulauan
cuma
##ಠ
distrik
penyebab
mengenal
tekanan
terbatas
selamat
sak
peringkat
##tinya
##age
##ence
menutup
berbicara
pembentukan
ciri
angin
##ᴗ
perintah
dag
samping
##aiki
arg
##ungkinkan
##fah
##eum
perbuatan
pengusaha
ditetapkan
akibatnya
sahabat
##utar
kuasa
merd
penguasa
memperl
##ayang
rasulullah
diser
penyanyi
era
melibatkan
ww
pernik
mengurangi
ris
ros
hamb
menyampaikan
apapun
bend
dibentuk
ketidak
##edar
novel
##ambut
berhenti
dewa
##nu
bahawa
kampanye
ip
mencer
http
his
efek
kalah
##gen
lawan
##◞
keberadaan
konser
##𝙱
##indungi
blog
kud
pegaw
##warna
semacam
lelaki
menggantikan
penjualan
##ebat
##likasi
##juk
kesalahan
cabang
gadis
engkau
nik
penjara
##itung
##⋆
urusan
pindah
daun
##◕
berpend
##ater
huruf
##asana
koordin
##𝘔
hadi
##elasan
adik
arus
soeh
ungg
##ologis
perasaan
##etan
##〓
bapak
mac
##ral
pelajar
yudh
##ovi
##ld
rupiah
malang
drama
kanan
penderita
##faat
berpikir
##engahan
tuntutan
gug
##𝓫
tanjung
##ˏ
semen
mengakibatkan
##impi
##osok
keuntungan
berwarna
##undang
##◍
kategori
penampilan
##osisi
perwakilan
##anggar
##□
york
setengah
epis
tungg
diikuti
long
##umb
2016
##𝕂
fakta
pegawai
##sinya
##aru
##ras
##pon
net
dise
menegaskan
klas
##ekar
mengingat
##ven
mendorong
kesulitan
##ts
memperb
bon
ancaman
eksek
diperoleh
sepen
perangkat
pertengahan
darat
sastra
##own
##asama
usai
terbang
pernikahan
soeharto
##ean
##zim
##oyono
##┳
tuk
latih
rekan
os
iv
##alin
wor
##hatikan
##𝖒
anj
##juang
##yan
staf
land
menggelar
hol
maksud
##unjungi
##ilaku
##𝒹
##raga
telepon
bertanggung
menand
##entasi
sembilan
haji
simb
33
maluku
##ᗰ
##my
pp
bib
##𝕜
musuh
united
lev
dinilai
minim
bogor
##tal
ujung
muk
kamar
kalian
sarana
##mo
##tifikasi
wisata
val
##aksaan
##elih
##ೕ
##lemen
han
judul
palest
yudhoyono
reformasi
banten
##iku
##isahkan
##ｂ
pendapatan
cur
berani
##illa
##osis
syarat
serial
terlebih
lam
##ataan
tanggung
##gak
merdeka
##ato
golkar
##⎯
jangka
##omba
all
fraksi
suasana
1945
lintas
nah
pakaian
##endam
##┑
markas
bos
bukit
##inet
##ผ
##ヮ
kre
##゛
##𝟱
profesional
80
lo
bh
##ancang
peral
lampung
##ɯ
membayar
mirip
mengin
##ᶠ
lant
kampus
mi
gor
stadion
strategi
kilometer
kaya
nyata
terbuk
london
##mb
##𝚄
bersih
##orn
sepuluh
dinyatakan
300
kub
menguasai
##𝙽
kompetisi
##anja
##𝑶
##ewati
eur
agak
tas
daging
kartu
##𝕓
70
pembuatan
dingin
##umur
pertamanya
toko
mengungkapkan
remaja
##𝕾
terbukti
memungkinkan
##◜
metro
ver
##ria
senang
populer
wir
cir
sisa
latihan
##edit
menambah
naskah
##oman
bertambah
terima
konstitusi
##꒦
##ayani
perguruan
##✘
dev
##🆄
satuan
ren
semula
bicara
##assar
##amaian
mencegah
cender
alias
bandara
rusak
dipilih
das
dampak
diangkat
comp
sut
terjadinya
kimia
world
serius
mengal
astr
##𝒀
pri
utamanya
fes
##ohan
efektif
harta
dak
dif
##kand
##ˊ
olahraga
##pe
berhubungan
sebag
##ph
kebebasan
##anjutan
hong
mengej
##indungan
adi
yay
award
wajib
##ᇁ
##fe
ans
pembunuhan
##𝑏
##unjukan
##jual
##umpulkan
makassar
pering
##ahaman
posted
dikembangkan
cita
divisi
menjual
kerap
kompleks
mengatur
susi
dos
190
##irian
izin
mekan
##nah
lumpur
ibunya
##❖
kok
kawan
36
##line
taj
##⅓
menderita
memakan
ga
kebakaran
dian
ketentuan
penyer
lemah
oksi
menangkap
wali
##der
swasta
1997
##ᴹ
kedatangan
##enteng
tor
##ꈍ
pecahan
makna
bung
moh
ramai
peringatan
tern
premi
objek
pemas
##tir
##ambi
normal
disebutkan
bertanya
##∇
##≦
##❜
menampilkan
##okasi
penyelengg
##engkapi
memperk
##lat
kpu
##⅔
yayasan
##osiasi
##atik
char
sby
arti
lah
##inj
##▕
ratu
##ros
gej
diant
##isa
berbentuk
##▔
perlindungan
cahaya
mendes
bbm
##ajuan
##lin
##˳
simp
dinasti
kecel
pon
spons
mol
##ampi
kursi
museum
betul
psik
lib
cenderung
kejahatan
naf
##iss
maksi
jemb
jarang
kenapa
##ago
gelombang
sekretaris
segi
cel
akbar
jantung
1990
episode
tersedia
##lima
mencakup
perek
manajer
##ﾉ
end
kedudukan
tai
pendekatan
##𝙒
belas
##agia
memerlukan
##inisi
solo
nu
menekan
parlemen
milan
langit
sehat
##go
##ebihan
dikirim
sebaik
kuli
##via
##enalkan
pelanggaran
##꒳
kecelakaan
rs
menyerahkan
alex
hany
target
mengalahkan
palestina
pac
2017
##intai
##┐
##ﷻ
##ost
##⁺
geor
menyad
menetapkan
ayam
##┌
##ary
sayang
kesepakatan
##ujuk
memanfaatkan
dijual
konv
ban
##win
##ingkan
##akwa
mendek
sebagainya
##so
##unci
smp
##〒
menggambarkan
##ger
jaksa
jul
don
simbol
hy
perilaku
##𝓀
iman
##inda
nasib
hijau
##tival
sain
kritik
kode
teb
otak
mc
##ania
puluh
jah
##│
pengungsi
protes
##𝙺
hen
timbul
##𝙼
kabinet
##ட
memastikan
tergantung
##adu
festival
##╾
gangg
bertindak
intel
ketinggian
##bon
artis
kesen
david
##50
berperan
ced
makhluk
##esu
panglima
pangk
##he
china
sepenuhnya
tunggal
singkat
pengurus
##io
##sus
kpk
##uel
dibuka
34
keluarganya
main
altern
##sih
##ewa
tud
desain
panc
berbasis
##andia
dki
##let
##pen
mengajukan
edisi
##indahkan
pingg
##usak
fin
mund
dusun
permas
##angsaan
keadilan
##umpul
dimas
##❐
sengaja
reaksi
##✫
##ica
##odi
sepeda
##✭
jus
comm
##ene
sadar
nel
populasi
##intahkan
##okus
lepas
mengangkat
international
##✵
##jana
saluran
paus
##sor
##fir
wat
##antinya
madrid
asam
rangka
habis
panitia
##iarkan
gangguan
sukar
perw
##put
penjelasan
hib
luc
damai
duga
ahad
##ᅠ
##←
kejaksaan
riau
budi
wid
##elan
direk
hidupnya
##lis
kepemimpinan
##ukai
##ft
sop
dilaporkan
menyelamatkan
mengumumkan
##urit
##osp
pemberian
gagasan
##ogen
kalinya
##ling
walau
sudut
##aksana
chelsea
kir
transport
dikeluarkan
##embalikan
##⊰
tema
##↬
tulang
inves
##otong
##ᴮ
relatif
ruangan
##﷽
jena
##✎
det
qu
##wo
##𝕁
pemak
##ihkan
##onen
forum
##✗
wahid
tau
##ƭ
pbb
##ker
marah
##egara
real
aktor
sekel
##atangani
berfungsi
fit
didapat
##engaruh
##⚈
off
pidana
##🄿
mengajar
melewati
not
jembatan
##ke
##ery
jenazah
ibadah
virus
##pu
dalamnya
dibutuhkan
perum
setuju
fed
alami
parah
##∙
inj
##ⓘ
ujian
##༶
akses
doa
memegang
mang
kapol
menahan
##ght
tertu
manch
tam
harian
mayoritas
##ೂ
##ೃ
cit
len
##adan
##𝓜
bp
##𝑾
peralatan
melahirkan
##angkit
##kuat
roy
menu
mulut
kertas
minta
mengatasi
pihaknya
kewajib
jawaban
dosa
##emar
##୨
investasi
kuliah
day
terang
produs
far
tamu
##ental
berangkat
bertugas
persatuan
diantaranya
menyusul
kecepatan
keyakinan
vari
turki
90
alternatif
##꒷
berkel
arm
terkena
ditand
mencetak
##entangan
memandang
##yakini
##unda
rahasia
seringk
polda
kekayaan
lantaran
diaku
ass
##🅷
maha
bol
terasa
##ﷺ
##indahan
##ƴ
##ℂ
melaporkan
praktik
fa
istrinya
seringkali
##ome
iran
banjar
##╔
ujarnya
##𝕫
bengk
##𝔽
tes
##nes
bum
##𝖋
mula
##ero
kehadiran
##esis
muka
na
menangg
##jakan
pras
##cel
##☜
diselenggarakan
##antah
can
lun
gro
filipina
kup
ringan
jurusan
binatang
37
##egal
layak
##∴
##ↀ
menurunkan
mundur
##oso
melindungi
##pi
pond
##ਊ
lub
##ilia
##𝔹
maria
pag
sempurna
##ೄ
perbatasan
tempo
belakangan
insi
praj
##gn
lantai
penonton
##uncurkan
menikmati
mewakili
##☽
##↳
setahun
let
merasakan
raj
terpisah
membahas
##lom
instr
kalimat
##ukuran
cedera
permasalahan
mahkamah
hasilnya
bil
##eman
##ﾐ
alih
puisi
kunjungan
##itor
kepadanya
timor
bor
tentunya
##𝑱
##ance
pembelajaran
sant
##onomian
##╚
berpendapat
##◔
buddha
38
beg
university
##url
httpurl
kendati
tampaknya
##uduki
mud
pandemi
dugaan
##sk
mempelajari
tindak
##ovid
menyadari
covid
kekurangan
ledakan
bersa
psbb
melayani
##olos
regi
dirawat
##ial
cm
quran
adapun
##amina
##oth
hanyalah
##ancar
##ugian
bersamaan
minum
##bk
ditentukan
tionghoa
utbk
seper
brasil
sejen
kredit
kesejahteraan
memainkan
##uw
perekonomian
##intangi
##orona
pelatihan
pengelolaan
tambah
kerugian
##ujudkan
nggak
menghindari
kemajuan
indones
tag
negatif
liter
suhu
menangani
corona
crying
sebut
aplikasi
ars
mempengaruhi
penerbit
##ric
murah
transportasi
loud
loudly
you
ditutup
ajang
diproduksi
diminta
lum
##are
##erja
pengikut
berbuat
##laim
##aktif
tir
tant
indust
moral
##esta
pasalnya
sasaran
pres
##itu
1996
dal
perpustakaan
##jawab
kod
rec
betapa
smiling
triliun
aneh
##kw
##kr
##ihatan
rekaman
bendera
##urang
membuktikan
kerjasama
strateg
we
##sb
posit
gejala
beroperasi
##eku
##ikal
coba
cuc
tangerang
av
covid19
umur
menawarkan
kk
tipe
##utkan
pengunjung
institusi
pemahaman
hear
##ff
dihasilkan
cipta
iklan
suaminya
flu
masyarak
hands
latar
rumahnya
lulus
hindu
optim
##ado
spark
senior
sparkles
minuman
danau
sih
##uss
##ears
tears
kesatuan
kementerian
identitas
bgt
##eld
akadem
komponen
thread
kunci
diperk
zat
besi
fold
hasan
lebar
syah
##jur
2018
##abah
diakui
nen
folded
sosok
abdullah
##ams
tahanan
##chi
selector
##iki
##aring
prajurit
anies
##ambung
gula
pasir
diperiksa
transfer
nuk
##its
berjumlah
kewajiban
skor
thailand
aset
gre
##lu
wkw
tiada
##zal
menentang
berumur
manchester
sore
fenom
didukung
##agaan
perbaikan
##orasi
##pk
mengus
dewi
##dk
plat
tone
fac
keselamatan
out
nark
42
##ormati
terawan
debut
kajian
##enangkan
##ect
diw
banyaknya
##krut
imp
menemui
setidaknya
gaji
##ory
twit
##oga
##tau
buatan
karang
##inar
konsumen
##awas
makam
ditahan
udh
kuning
dini
kus
perairan
kinerja
hadiah
star
pesantren
##ungkap
##epend
##ormatan
tal
kebi
##ito
asy
##yang
ditambah
##agung
1995
apd
unik
semata
##way
kesadaran
jas
komis
seiring
kelima
pertamina
termin
dosen
las
mengunjungi
diatas
gemb
pemi
dialog
wa
beragam
ra
##iswa
kering
ambon
pikir
##dy
menghentikan
##ays
diskusi
adil
menghancurkan
paris
tat
##car
##ocok
##pol
##iden
##hu
berbahasa
filsafat
seolah
berapa
label
##itungan
perdamaian
konteks
tend
analisis
##yanya
perawatan
berhak
##ertempatan
independ
gelap
##yal
peneliti
pembicara
##ebaran
##use
##hael
##aysia
##ohir
##ensif
400
komunis
##utif
dp
##rahim
prestasi
fe
laga
area
legisl
##oner
pencipta
los
are
rencananya
melanggar
pn
##etakkan
berbahaya
##inting
keman
keberh
##inning
bursa
cok
##ebon
##agama
halnya
dibagi
mengend
merujuk
##wis
nar
##otan
##jem
thohir
floor
##edak
dk
##akh
sesudah
darurat
##awatir
laugh
dll
nap
oksigen
##ersial
rock
##ash
39
administrasi
agen
gabungan
juru
##abiskan
laughing
pemenang
memperbaiki
mendesak
konferensi
grinning
detik
beserta
cil
sapi
##nan
##yum
tarif
nelayan
karen
##indo
sampah
hus
kuda
##tibmas
##alanya
kumpulan
wang
emosi
kopi
menak
##ford
berkat
maaf
mengumpulkan
##rib
##aluran
pondok
cy
##amtibmas
pengertian
##iti
##yangkan
bhab
komisaris
##oma
liver
##lakukan
demokrat
phil
##udin
putaran
hebat
utang
##inkamtibmas
nusantara
bhabinkamtibmas
##ajat
wind
mengarah
keag
75
##arant
dec
akal
pengend
dibawah
selepas
kump
##elit
beban
insiden
bertujuan
##rahman
##akerja
jps
khawatir
eksekutif
truk
diperb
41
penemuan
hadapan
2021
beli
mahas
##rak
##ser
omn
gil
1994
cirebon
timnas
##urunan
pegunungan
kebiasaan
kapasitas
##opsi
##arjo
##mpin
##lum
mengab
##unakan
inti
##ower
penyeb
cip
##lawan
aja
stabil
istimewa
bed
daf
purw
perkeb
##icarakan
omnibus
##sin
pengakuan
semoga
##bal
bersedia
putr
penurunan
keju
##ihatkan
patung
jambi
kian
visi
rich
##amar
kapan
##itmen
blok
##ume
pointing
##ear
perkebunan
level
pangan
##mer
55
hektar
diman
43
ca
##acu
berkuasa
##encanakan
tertarik
##adapi
##oo
##wedan
##ankan
mengajak
##inaan
online
boc
pembuk
menaker
resmikan
backh
pahlawan
backhand
membuatnya
tanya
sap
##timbangan
##kes
krim
komandan
##ubung
48
merusak
##idah
penyeles
hand
cak
iklim
wujud
janji
##ikul
pengawasan
dinding
##obi
##net
##ayangkan
angkutan
inkubasi
##egan
benteng
##ander
##ppk
baswedan
komando
gigi
asasi
lapisan
44
bbppk
skr
##str
##owo
tepatnya
##pool
news
##rani
prakerja
bagaiman
sinar
##away
##tain
kelapa
##ugh
ibrahim
panggung
sayap
mask
penilai
berw
##araf
memeriksa
menyaksikan
dolar
pay
mesti
belah
brig
##pres
kamb
fre
##udik
tiket
elemen
pkp
tertutup
gat
##fek
temp
bangs
paul
##adaban
##ombongan
sekitarnya
kudus
##istem
tajam
##angkutan
##ove
lan
kanada
##eat
persa
memperhatikan
##enangan
personel
##ony
menyeb
seksual
om
from
baharu
giveaway
dipert
anjing
mengancam
menceritakan
telur
perayaan
##aming
##erat
##usiaan
pis
mm
##presi
menerus
kotak
fenomena
nenek
cac
susu
park
##indung
umar
dijalan
##stem
digital
kemiskinan
jgn
mengingatkan
sekadar
membantah
terdakwa
diatur
nor
perwira
menduduki
##ool
diplom
mengerti
jun
melepaskan
sewaktu
penyelidikan
kn
group
tuduhan
michael
peneg
otor
##jang
mencatat
teluk
kegagalan
stat
##siapkan
aktivis
sesama
##ansi
ub
ikatan
pesisir
tryout
persiapan
swt
contohnya
urutan
liverpool
sebaiknya
elektronik
kapten
##atanya
##ampau
dipercaya
keberhasilan
mengat
tantangan
187
berjanji
mahal
ingat
##ulusan
firman
##olehkan
cad
pesta
hil
wkwk
47
bec
sor
wkwkw
##uta
ec
sebutan
memerintahkan
mekanisme
##awar
46
lolos
sand
reli
usah
beragama
center
ketat
beda
est
rangkaian
hindia
##luan
dialami
viet
biru
##kait
kanak
teknis
adam
rancangan
menempati
soekarno
keperluan
plas
perbankan
mengganggu
sad
thumb
nag
skala
manfaat
black
51
komite
##aikkan
thumbs
dilengkapi
##uy
pjj
ilmuwan
layar
tersend
##mah
guys
mir
huk
yusuf
memperkuat
##adiem
profes
kalla
jari
nadiem
rambut
pendiri
ekor
##atorium
bac
pembah
penya
penutup
##sal
aut
melalu
risiko
berdarah
##rol
sarjana
konsul
pertimbangan
tersebar
robert
##que
##kini
logam
##ikirkan
##emas
##etakan
pengganti
##iplin
impor
##antikan
berpengaruh
aip
pertunjukan
diungkapkan
kritis
##gia
##omi
tki
menempatkan
menanggapi
tahunan
mengant
persidangan
aiptu
letak
menerapkan
menghabiskan
##angkapan
##we
##aren
waf
kebun
penyelesaian
##ominasi
peta
tenang
kala
lupa
karenanya
berjuang
jaminan
##oks
ucapan
##20
poli
tetangga
ganti
##irinya
play
tetep
tubuhnya
dikutip
##eth
berupaya
mawardi
2020t
##upuk
sayangnya
kac
##rus
dibertempatan
##masi
histor
diserahkan
150
evolusi
##arak
##los
kamishari
dong
peradaban
dakwah
2020tanggal
system
studio
skrg
jati
##ings
mengalir
strategis
##onya
sweat
kart
diciptakan
pandang
kemanusiaan
##inking
hiburan
penilaian
##yanto
##aud
perlawanan
terminal
memanggil
induk
mengisi
##anakan
pensive
angel
ic
##ebo
##ular
etnis
diterapkan
rap
lukisan
mengam
memaksa
samud
tertulis
setia
ven
##etapan
prob
klasik
menyambut
rh
##namen
peduli
cantik
terdampak
mulia
mengec
naz
padi
mandiri
sahaja
bany
cek
##ampingi
pleading
##aram
penda
tutur
##uruk
keagamaan
##alisi
unt
##inci
##ahi
semasa
##jol
kandungan
kond
intelek
lantas
##masuk
doang
pencarian
pembagian
besarnya
rupa
hip
##las
unggul
vis
##olri
##ook
dilanjutkan
sumatera
perumahan
polandia
term
##covid
##ancarkan
disertai
dilarang
kanker
##enger
##argai
signif
menyangkut
lomba
ngom
mr
##ajwa
kaca
sinetron
salam
##guna
lubang
orang2
##mptn
vietnam
##mark
george
##fr
2020b
odp
kandang
jend
##ins
##osh
bekasi
bod
medis
penduduknya
sejenis
pakar
digantikan
##ambangan
##ayangan
undangan
kain
unjuk
surya
2020bertempatan
pelanggan
pkb
liar
kosong
menemp
konvensi
labor
dilah
dipanggil
solusi
kompas
ekspor
perut
##rom
merilis
pergerakan
beaming
formula
west
senilai
##upan
tali
jak
##ikbud
keu
dor
##ormasi
gratis
teh
##jabat
memec
menyerap
##uai
seluas
terbakar
ibnu
kreatif
bersikap
##entrasi
##eni
melarang
##vi
petunjuk
jej
keterl
##agic
mengenakan
##gasi
lobs
gamp
##dam
kakak
kesenian
##apres
membela
pengobatan
kesimpulan
##ejo
peranan
karyanya
paket
kebangkitan
lobster
56
kubu
syariah
##ekuensi
##cing
##ical
pakistan
sari
sutradara
pembayaran
persetujuan
purn
menjamin
nantinya
jadwal
maksimal
temannya
koran
##zh
mengirimkan
##ese
iaitu
memproduksi
diubah
mom
hum
##rut
semp
with
sawah
mendekati
##uhur
52
diajukan
rid
rombongan
signifikan
nuklir
berencana
sr
##fud
dikit
##aluasi
kebaikan
matemat
##odo
wajar
terdengar
bot
menginginkan
arsenal
manis
raks
##ekonom
##yon
##ateg
penyimp
cocok
##ugikan
tawaran
perahu
kag
terbuat
54
nambah
but
disini
gem
186
##ogo
transaksi
hatta
##mpt
agenda
baku
palsu
putusan
hancur
katakan
diad
komitmen
kesan
##tivitas
##aib
##wisata
mam
sekit
53
hrs
2019
terbagi
blm
##ise
##abil
49
tka
kedok
pembaca
##malaysia
##berg
murni
bersenjata
dilahirkan
##bagai
##asihat
otg
##omend
menyiapkan
tepi
sia
##abisa
natal
fc
boy
jajaran
win
##rama
teroris
##imbang
##erus
##adhan
dimasukkan
panggilan
lockdown
mengembalikan
vs
sbmptn
tsunami
##olakan
balai
pengk
##fan
pensi
prosedur
eksp
##eti
kaw
sunda
kli
covid19malaysia
mendatangi
didasarkan
najwa
menara
zh
uji
ais
zona
##ikh
##enam
##waan
hut
mewujudkan
##alas
lampu
diturunkan
trs
ran
nyari
##indones
nusa
diantara
##js
##lok
##ks
##tad
orde
bilang
##hip
ruu
##izinkan
read
menyimpan
berlanjut
kelak
##ovasi
pasca
perencanaan
58
pembat
engga
##etulan
gambaran
maks
maklum
##tivasi
mending
65
57
internal
bob
kg
##imu
##fl
##10
muhammadiyah
fokus
##uaran
##omas
ltmpt
##tris
penyelenggaraan
hik
tersendiri
entah
otom
fitur
mengklaim
dibunuh
tukang
lim
this
kadar
memasukkan
saudi
pip
lunak
rud
didalam
mb
ner
##teran
cepet
pek
raksasa
independen
nan
palembang
##covid19
aud
puas
bapa
sangg
isteri
##vasi
menk
gabisa
cop
candi
##jt
pdip
dasarnya
ori
riset
jin
hai
surga
##ekor
citra
seminggu
yan
diyakini
law
kebetulan
kemaren
##bn
##angkatan
bertentangan
##egaraan
tweet
berkumpul
respon
##vin
kelihatan
gerak
##ambu
ruk
##imal
heran
##identifikasi
akr
pemul
berbatasan
##irik
##ere
##sm
nyaris
##sy
dipenuhi
##utri
manag
fal
62
baju
##arankan
satelit
dimaksudkan
600
enter
national
akar
##abkan
##ster
arif
##atalkan
##jemahkan
nep
pinjaman
ebit
diumumkan
kebut
besok
ja
##bum
raf
bansos
dipastikan
##enting
##ulah
vic
ditujukan
##ture
padat
frank
kalo
inc
bunuh
menye
mengejar
kai
##inah
##obl
##erik
efisi
amp
##orit
terbaru
seniman
##lang
beneran
##bud
kuala
##date
oc
sebenernya
meg
ash
tap
##onsumsi
##astian
bergantung
perancis
##erh
##rim
slight
slightly
ditempatkan
swedia
demam
port
depok
##outh
samb
##ario
cadangan
##owing
petang
kakek
sesi
##iru
rektor
dicapai
puasa
##alem
##bola
##weet
bahaya
##illah
amal
menandatangani
bagaimanapun
menghadiri
maskapai
sepakat
trili
terbit
tommy
semesta
mouth
dinamakan
menerbitkan
petern
hon
##ujian
jl
terkadang
jack
paru
ups
##angis
bersalah
##idat
swab
mek
semi
kecewa
armada
wi
##ugerah
century
##kom
tempur
memerintah
dirancang
grand
usul
mayat
kerusuhan
untung
alum
##iraan
bermula
kasian
dimanfaatkan
gir
dimak
ritual
##ebak
##arantina
##abut
cuaca
pariwisata
##lasi
mental
##ella
##ward
kuali
teater
arsitektur
rasi
mengundang
investor
volume
koalisi
akun
koleksi
mendengarkan
##etika
dam
##rb
ala
kw
kara
lak
emg
campuran
##alon
aq
ganda
flor
memperlihatkan
asosiasi
atm
jahat
##48
dijelaskan
makarim
##esa
##oyo
##2an
##ikin
menyusun
##ipun
##ott
gul
cas
muslimin
single
##ys
berkurang
##yp
##ugas
lulusan
sibuk
ilegal
##lian
menyerah
gram
meja
pembukaan
agresif
nder
ngasih
##okap
pameran
otomatis
rasanya
##okohkan
penangkapan
dipandang
mengad
dinam
hor
patri
##dian
turnamen
mengokohkan
##arantentang
gambarantentang
##yono
digambarkan
formal
klien
banda
rutin
yohan
beriman
menunjuk
harinya
kedokteran
terancam
that
paham
inget
swiss
koordinator
jel
##ajikan
sekedar
warisan
59
pendirian
##aton
ue
pentingnya
laboratorium
gud
perak
upside
mulu
aktris
##untungkan
pangkalan
mengu
mont
putus
##antum
susah
gaada
halus
permohonan
sedikitnya
rm
harry
habib
mab
##cok
laks
##30
kabur
wkwkwk
seekor
barisan
hamba
patuhi
ketak
roda
memuat
cari
##ile
##unggulan
raden
nak
pant
terorisme
pemegang
meneruskan
bersangkutan
##undur
##imbangan
diganti
isa
menghubungkan
tersisa
##2nya
##adak
menyebar
game
gak
penjaga
tump
jdi
##yakit
##usai
bersatu
papan
rekor
##idiki
pew
pakai
terlepas
serv
keunggulan
selengkap
indeks
angkasa
lee
babi
school
intelektual
pram
gajah
berharga
sembak
##oi
berguna
##untung
windows
gh
sekal
pir
##gr
##ale
##irman
penangan
ronal
jon
##awakan
##ekonomian
bangun
pasc
wawancara
64
sind
gur
sains
##ude
##over
##wab
##utuhkan
##apus
email
peroleh
fah
musa
##onc
pembicaraan
##rian
kader
lambat
skuad
hearts
##ribusi
##aba
koordinasi
pdi
amien
kementer
praktek
sept
dibantu
minimal
sank
pembantu
uud
##kl
melebih
##eved
##atar
pengacara
seminar
ret
relieved
##hum
pura
hom
##ambar
##angin
##atuhkan
##antasan
trag
retweet
kandidat
ditunjuk
terjemahan
pemilih
belanja
pans
kontrol
basis
persek
##nik
pantas
promosi
##yek
selengkapnya
institut
pilih
khali
berlebihan
diselesaikan
##oker
jatim
sekelompok
multi
##isar
malaikat
##otaan
mimpi
siti
hidayat
gerbang
##2020
duta
pembinaan
menekankan
mempersiapkan
mataram
operasional
hay
anwar
time
besaran
perund
##apping
##ole
##lus
leh
rute
bulu
subs
inform
barcel
##anyikan
peperangan
plis
ideologi
daratan
jumlahnya
resolusi
##ayanan
terjun
##erj
##asti
dihadiri
##ze
##amiin
##operasikan
hatinya
penerimaan
berdoa
tarik
berpr
clapping
##anjangan
##lamation
ci
lambang
##amana
rub
dkk
##jan
exclamation
barcelona
ray
pertam
mengund
komersial
tahan
ditemp
yout
##anam
poso
##umpai
melakukannya
one
##edik
ado
aamiin
andi
##irasi
fot
hamzah
mengacu
munculnya
##oki
##ware
kenal
ditanya
##abar
persaingan
##ussalam
kamera
dirasakan
akademi
disiplin
les
vit
langgar
##aritas
##angkal
regional
material
##ansir
lest
youtub
seusai
kehormatan
##iatan
hir
kelemahan
music
##nal
ditolak
sopir
mengajarkan
kenc
##eki
##usif
gua
bpjs
##ogor
lanjutan
memperkenalkan
pengelola
ungkap
pendeta
denpasar
bund
##erhana
gapapa
kediaman
menurutnya
wafat
narkoba
##abatan
menangis
pengamanan
konon
pemberantasan
##elapan
btw
said
landasan
disediakan
rac
terluka
larangan
wash
dijalankan
##emy
##ahnya
penal
menghormati
nanya
maap
##esh
##ambahan
siaran
##aaa
penyerang
tanggapan
menyes
##ongkar
misteri
berulang
##obaan
pelbagai
awards
##oyang
under
umno
bata
denger
sug
kut
##emuka
dipengaruhi
rezek
mesk
euro
penghasilan
##lem
##ico
rokok
##ebatan
mendalam
mengakhiri
topik
##che
jolf
##anjikan
aplik
rumput
berhadapan
diab
##inga
lari
dada
##akses
khal
menolong
otoritas
berman
dap
asap
keliatan
taiwan
ngurus
wahyu
mini
zain
jusuf
##umunan
bangkit
dimainkan
jual
cend
##ograf
melebihi
##chen
##ure
kemiskin
##day
msh
penanganan
dikarenakan
ال
penerapan
berni
mail
##lahan
hart
##ull
ath
kucing
malu
##amankan
tergabung
atap
setan
mega
##ibatan
##rit
berkas
mutu
##amm
alasannya
chan
kabup
##baru
gatau
bocah
##iayaan
mens
##ism
jac
##olan
disusun
parti
minat
##lind
##linya
##ahit
terti
disamping
mengelola
koperasi
gitar
##ingin
cons
down
baw
hadits
patut
66
distancing
knp
pengunjuk
konsumsi
pasokan
ortu
jil
diker
pengamat
lag
kontak
tegal
bangsawan
##otik
##eber
menaikkan
##asari
kb
##sara
kurangnya
seter
god
##atukan
bing
hulu
cd
hamil
berak
sanggup
distribusi
jaman
agust
praktis
taun
ms
penolakan
bersaing
kebangsaan
mandi
kompet
inggr
dirumahaja
##mur
diluncurkan
matematika
dikuasai
##lh
ular
adv
penyebaran
serang
cik
shah
##ations
membakar
ntar
rt
kluster
tiang
##ution
nangis
##krong
perkataan
kepemilikan
tangannya
pupuk
gara2
bengkulu
kesian
ambil
##bel
kurikulum
tangk
##ilingi
##num
nyaman
aid
melanda
penulisan
niat
jujur
motif
##dikbud
##apatkan
religi
menimpa
dengannya
raz
##jar
kuncoro
##isinya
##sial
menyelenggarakan
derajat
bid
##luk
ketimbang
darussalam
maya
##bendo
800
##akuasi
##agn
ditandai
##ihad
usulan
lembah
membiarkan
bahagia
menghilangkan
karangbendo
dihadapi
alamat
merugikan
pengerja
##reen
stev
ungk
garam
anjir
menguntungkan
##inggalan
hahah
gobl
premier
broken
dpp
sejati
##iasaan
perhitungan
sepertinya
human
dhar
every
##gk
goog
##ampur
##egoro
kepent
kaga
perlahan
persyaratan
bpp
sela
lebaran
##zz
##app
musibah
mid
##wasraya
okt
format
butuh
pembuat
##sek
soft
sanksi
##impunan
pungg
sai
rp1
nakes
ketakutan
tokyo
##ardi
bilangan
memikirkan
profesor
richard
males
##jir
purple
##raw
batam
bomb
muhamm
kepr
dicer
gand
##asila
chi
##angkitan
hij
tenggelam
teman2
##embak
lp
menyukai
kesukses
oj
pidato
bill
diken
tertua
##ct
sido
pengambilan
mengand
cam
sabar
pembelian
dateng
batal
adegan
gmn
berawal
##awai
##fit
##abel
berganti
terimak
coll
sepakbola
kelebihan
pemakaman
sebulan
##nai
##iji
##umbuhan
rupanya
pushpin
tembak
jiwasraya
bakteri
south
andr
dilansir
memul
sinyal
villa
infeksi
tb
olimpiade
##ide
membedakan
bij
bukannya
##evel
riwayat
pejuang
##old
##be
cipt
01
dul
menghargai
ky
ucap
khalifah
keteg
berbagi
##val
ach
##wood
mengganti
##saat
rugi
otot
kewenangan
produsen
berdua
##yy
batik
##ekatan
bukunya
##adat
belom
05
mumpung
penangg
panen
plus
erat
##spirasi
berkunjung
wo
milyar
graf
dimensi
##emikian
paman
kerangka
pep
shalat
##oax
pancasila
ug
##orsi
08
peramp
benua
pembahasan
show
##fh
google
asas
##antit
membebaskan
more
wapres
kmr
##deka
##corona
##hs
org2
kolonial
marx
kri
##andra
demonstrasi
spes
06
sumbangan
ekonom
##gunaan
gay
##urusan
deb
dibaca
fisika
rok
selaku
bara
zi
soshum
parpol
lil
segar
max
seneng
bermanfaat
mendadak
##angkau
back
nad
drs
tk
##ativ
persis
menon
winking
73
ded
##olo
##hari
disimpan
tumb
63
tersen
won
ttp
ditaw
dub
demok
kepikiran
hug
gop
lis
##arantin
##otanya
88
berniat
squinting
california
##ogan
deket
72
amin
mengundurkan
subsidi
gunakan
seakan
mengikut
haram
cairan
gembira
ragu
85
aslinya
penderitaan
##lor
rahmat
##arki
univers
ij
kay
beredar
bentar
##ikm
##enial
kerabat
61
madura
yu
##ampungan
gudang
09
penyi
02
gaes
seputar
hugging
dagang
menel
##orth
##oke
xi
##ech
infrastruktur
mineral
kang
##trans
bro
bener2
mabes
sebabnya
org
adek
kuarantin
bunyi
##jukan
##ening
##okes
tembok
daniel
acad
stafsus
doktor
vokal
kehendak
##embunyi
##uba
bulog
keterlibatan
seterusnya
700
kpop
fad
mencintai
sedemikian
keindahan
wac
rezim
##edah
master
##ye
senanti
cup
##iteria
warung
saleh
##inter
##for
amir
definisi
##ux
##umber
##andu
komb
##gian
pengawas
pilk
shg
senantiasa
##gar
domestik
jurnalis
##spek
app
pengajaran
polres
185
limb
aspir
makanannya
mengendalikan
surve
lemp
##yid
saran
pasifik
kaitan
##erai
tambang
##rie
cegah
mengucapkan
kyk
tersenyum
##ihab
ident
##ashion
beta
##ashi
pemeran
##sion
##rp
cetak
love
berpindah
sidoarjo
realitas
kasar
obatan
250
##ariat
##gur
teguh
beri
santo
kemas
mcm
99
menghadap
##antitatif
memelihara
##atain
##isipasi
##oci
##erse
pembebasan
mengantisipasi
##ology
gopay
song
kutu
komik
memadai
kesuksesan
##ety
##indari
merayakan
##olahan
180
##amaju
##eph
##ahap
only
kah
website
trop
lamanya
membersihkan
##eno
mong
psikologi
nob
##tunya
muara
##isip
produser
budak
menduga
wfh
ditempuh
##ky
##otes
##teng
##ianto
fifa
##kus
kual
##eet
klaim
grad
etika
##estinya
##oss
mentah
##usat
menggel
##omosikan
kriteria
gada
pensiun
asisten
68
dius
##pura
##ujung
pra
kolam
##olf
bukanlah
meyakinkan
semenjak
##asang
##inang
##awijaya
##kwkw
meluas
rebahan
dwi
pust
biji
anter
menyenangkan
##ajang
ngakak
##akt
almar
silah
##utnya
##munity
pilkada
direncanakan
tabung
kunj
saintek
market
muj
ungkapan
##ualitas
##ruari
##inat
saudaranya
memicu
ternak
##ontrol
##akala
press
temuan
##reaming
jangkitan
mengger
seleksi
bermaksud
gara
manado
waktunya
almarhum
menetap
##opter
membicarakan
pelaksana
work
##inggal
##ober
perikanan
kemungkin
dias
pansus
mengharapkan
lancar
##yaw
pks
##infek
pasang
dikenakan
pecah
eli
akademik
##tag
temen2
penerima
bambu
##dr
stadium
##allah
bumn
##aker
pemasaran
ih
hu
##onegoro
wew
menyetujui
mengurus
herd
kambing
sci
pemda
dh
sit
jama
dollar
kafir
enggan
wayang
berkenaan
bertu
bakat
asean
##itanya
malem
ppp
restoran
terganggu
benc
asuransi
penetapan
##alurkan
diisi
best
hangat
##wang
##ulir
bibit
terbanyak
mengerjakan
rohani
kekasih
pic
nyawa
##urt
##engkapan
lomb
sedih
lemak
cucu
nada
##ahter
marga
punggung
##astikan
beruntung
##oll
67
##ibur
tujuannya
terkemuka
membenarkan
miss
viral
tw
karangan
tebal
##ehan
##unjang
spiritual
gais
##utin
buzz
##polri
##ning
penggemar
74
##intar
life
fran
kid
##agukan
uda
pengec
##agram
##lm
disiarkan
makasih
07
krna
##agaman
##lication
haha
menyita
anggotanya
denmark
mengusulkan
setara
##akna
dimakamkan
berpartisipasi
byk
spek
tin
wisat
fu
immunity
##erjain
priv
pilot
how
disana
##juangkan
pemandangan
solid
bios
##iro
green
kiai
mahkota
tuanya
jihad
sof
puc
##ote
tech
multiplication
81
dibahas
mrk
power
mangk
pasaran
tingginya
pki
baja
berangg
mahu
muslimahnews
kedalam
insp
pengem
menyelidiki
hahaha
##ebook
hoax
gausah
konsentrasi
ditinggalkan
direktorat
##out
##utanan
76
brun
mcd
kedaulatan
##eu
ambis
sumur
kenyataannya
goblok
seribu
yaud
##matan
##top
sunan
za
kesulit
akrab
anak2
kontribusi
##ewaan
menembus
##san
penyelenggara
penyedia
##imen
kebahagia
salat
jalanan
dinyat
dikelola
kompetensi
mog
##alisasikan
drp
legenda
pembeli
way
##aduan
steady
##agan
fiksi
plastik
monkey
pemukiman
bosen
persah
penyidik
tipis
dihentikan
akh
##gabungkan
wisatawan
good
serangkaian
bayangin
wacana
glowing
##unyi
anal
terpenting
kendali
##inggung
hantar
konsisten
120
sken
persamaan
cha
didik
organik
liberal
##yani
mewah
##oka
eff
bentrokan
referensi
##cle
menyebarkan
##awati
menyentuh
universal
cerdas
meres
zenius
##utupan
mutualan
##oe
##bd
pengiriman
persahabatan
##cc
##als
awak
komedi
sejahtera
dipahami
##ofi
##omotif
nct
berturut
buta
##upi
rela
pinggir
bermakna
78
get
telek
kabel
victor
high
oh
pembakaran
mempertimbangkan
bkn
##pn
membah
rasional
yaaa
##entik
77
pdhl
upah
menempuh
anterin
awam
beng
sawit
barusan
##yt
terungkap
vii
bny
bokap
terapi
sisanya
sosialis
##itt
orangtua
ismail
indra
nafsu
buzzer
stru
kapolri
kerumah
leher
hiv
mencuri
##dan
jateng
bau
berikan
##hid
meledak
khan
##apin
brawijaya
kedungrejo
##ury
##ink
##ampok
file
kebahagiaan
##alanan
mayor
gig
ngada
terkesan
roti
jejak
melamb
himb
sempit
ngumpul
link
mikirin
dibeli
pertar
konstruksi
lini
dekade
terdistribusi
##injau
04
bpk
anx
memperkirakan
##anfaatkan
didampingi
##akti
evaluasi
audi
jag
menampung
ruas
fase
##faatan
ditawarkan
##ative
sms
mitra
enak
matanya
fund
setinggi
##aruan
instagram
perhubungan
##anjurkan
tex
motivasi
keahlian
tahta
harm
gugatan
##off
##obat
##panjang
evil
##tanya
hakikat
ladang
tutup
gamau
garuda
bnyk
2024
ciptaker
julukan
sempet
disambut
##isih
yaudah
utas
##akor
pln
shopee
kayanya
interaksi
christ
eric
71
##enya
record
ojol
terkejut
line
##yam
karno
laku
gan
count
doi
sblm
##work
pendaft
perlind
demen
buka
##angkitkan
bingung
##ushed
##gh
##urah
##tip
hard
##ohkan
kehutanan
academy
ix
sepatu
pesat
mengamankan
ngerjain
datuk
##apresiasi
##angkali
##idana
deras
##ering
manc
##asaran
neraka
pendaftaran
entertainment
amanat
raised
potongan
fist
##normal
caranya
emp
instansi
dikabarkan
rahman
kelap
bacaan
toh
rekomend
syariat
edhy
lurus
akhl
berkom
##adaptasi
omnibuslaw
dpd
##umpa
netbook
##kala
##ulia
menyarankan
ramadhan
##daftar
map
analis
##ruktur
kemenkes
bea
##ele
isinya
ditunjukkan
95
rw
bangsat
sunnah
keberatan
##ily
tugasnya
##unculan
memf
kediri
selang
massal
kolaps
rach
tank
sn
survei
prioritas
federal
ty
##ianya
peternakan
dipec
club
kompr
sekian
demonstran
rekom
milenial
kriminal
##uke
##syah
jabatannya
##ulat
milih
paksa
##onan
##zo
kkm
pembawa
##cang
bbrp
##ucorona
perdebatan
##━━
juventus
##epan
##ls
##wanya
##ilasi
ngeliat
datater
menun
ngerasa
tertawa
tabel
##arinah
nyokap
##umuskan
##masker
urusin
develop
##cepat
##tiga
tongk
tengk
mendarat
sarinah
86
##jaan
ditarik
##barucorona
mant
dataterbarucorona
##intis
menanyakan
politisi
mohon
musisi
##isiplin
pengas
##ganegaraan
perlakuan
melem
##omn
surakarta
penghuni
harganya
biceps
percobaan
pengum
pengaturan
flexed
param
berjaya
##ilaf
##board
palu
prakt
nn
som
intensif
tpu
pemantauan
gugur
##ulit
transp
##astis
rizie
jim
baj
lgi
##bs
bub
##dj
##anggur
##ius
pengeluaran
fav
wab
penerangan
##firmasi
cem
siapapun
dendam
##ehat
drakor
ampe
##eser
blu
seluruhnya
asuhan
hang
##ahulu
sentim
menonton
pcr
mutlak
scr
pemulihan
ditangani
propinsi
zul
mendatangkan
##okol
diperhatikan
##uto
operator
wik
epidemiologi
##nia
ahok
facepal
##iny
bulat
bercerita
pontianak
pengendalian
psych
berdampak
kis
software
##tive
##erankan
69
sengk
aspirasi
##isit
facepalming
telinga
baginya
ribet
dibebaskan
kultur
pengadaan
rekomendasi
mendikbud
himbauan
dihukum
overs
bimb
webinar
pertarungan
##okerto
gizi
prog
frekuensi
ear
##omnibus
##fo
wr
##idasi
##ahah
dilantik
korona
penyus
##inum
dipake
butt
jabar
anton
beralih
##bun
skenario
ajah
##isahan
meluncurkan
terdekat
sump
menjauh
bodong
big
##onik
##care
lirik
filos
nampak
##ukasi
##jat
ovo
##tp
kue
##wijaya
belgia
junior
habit
telekomunikasi
telkom
reseller
zakat
gpp
##asing
03
belasan
##daya
##oses
semenanjung
serba
ks
matang
over
##ecil
hubungannya
sebetulnya
dominan
berbah
pertambangan
membalas
nangg
##vive
penjual
tong
cabut
penambahan
jurnal
ketah
rawan
gegara
##oom
logika
nominasi
ideal
kandung
##esarkan
persepsi
dengar
survive
bertahun
apaan
pemanfaatan
patah
gila
##inus
##entak
nil
##ru
bervari
menjalin
pengolahan
lazim
ciptaan
cs
melemp
berperang
pengumuman
pencapaian
teri
kepalanya
lor
##organ
membuang
opini
98
tragedi
eksekusi
public
part
penahanan
kecerd
dipaksa
memohon
kesem
##ult
everyone
takde
##ugat
resep
##ikanan
##zzy
dibayar
mohammad
tahapan
pandai
##wal
badai
dipasang
penganut
yth
mmg
oversea
dizzy
masuknya
hallo
atl
dicatat
goreng
##ng
##erg
kepribadian
hrd
animasi
##emia
papaku
klin
penerbitan
memisahkan
campur
menjatuhkan
syarikat
ow
ditambahkan
##resh
facebook
batin
run
biar
terlambat
berjarak
##pad
##istribusi
terdaftar
berlatih
huhu
persekutuan
iskandar
berkep
bodo
pendatang
dikaitkan
hadap
keseimbangan
pergantian
berpeng
lingkaran
baiknya
##ilafah
##arahan
ngaku
mempers
sdg
son
tenda
##egahan
##edul
memindahkan
pangkat
mulanya
yaw
##ahin
diberlakukan
bervariasi
97
##11
##apahit
##ege
##arung
rm2
keterampilan
mbok
dend
membagi
klaster
spec
diserang
daud
diinginkan
naga
##ektor
berlokasi
##acing
##antang
##visi
diak
##agikan
##uci
benar2
majapahit
solus
##ife
##emimpin
##atim
cacat
sakti
82
memat
wadah
bertutupan
outfit
ox
##idaknya
kuk
##kota
sha
membatasi
kmrn
arrow
lembut
##lasses
remind
kematiannya
alian
##jaitan
lautan
kapitalisme
##angkab
sunglasses
relev
sifatnya
wilayahnya
##ous
gift
masakan
dituduh
institute
##omnibuslaw
biologi
giliran
##emaran
##antar
produktif
front
abadi
terper
sport
majikan
kuningan
berkualitas
##yana
ㅤㅤ
pastu
##ike
infr
menutupi
bawang
50k
##oskop
impian
##oper
kemacetan
kepastian
bangga
wargan
lgs
pliss
pengen
##atinya
##zuki
96
##ancur
toy
wabak
ngot
subur
menyuruh
##udahkan
##ym
awan
##itizer
ditandatangani
##ensasi
who
##amau
##adiyah
##agen
teratur
instrumen
##endi
pekanbaru
flushed
dikatain
##ontalo
sepekan
wewenang
##ake
sara
royal
biro
penyair
perkiraan
kemp
nis
##usul
karir
skincare
norma
lal
84
jutaan
berga
pelunc
intelijen
demokratis
minangkabau
penciptaan
gorontalo
rais
inovasi
dayak
##akapan
parkir
##irak
mutual
##shsh
pls
rab
##ject
atasi
##ayasa
lengan
will
sentral
bani
##osan
andro
rumit
corpor
vitamin
tour
##ership
ui
##itisi
bersaudara
inisi
drpd
##kwk
spesifik
kacang
nug
imf
leluhur
##erahan
##awancar
tul
##imbing
dicetak
##load
puk
dituntut
masukan
safe
mot
dang
karet
##ajibkan
microsoft
buru
ngeluh
infrast
edi
##izen
kontroversi
dijadwalkan
mengejutkan
prank
##rin
visual
##hat
limbah
mentality
tj
##zab
partikel
barangkali
##adaannya
##andom
##iapkan
laju
smk
polr
skrng
cewe
diawali
nemu
kurun
##angkaan
ngajak
kejayaan
adik2
pantesan
she
bhw
##hhh
statistik
dibakar
atlit
tertinggal
perspektif
##cus
87
##apped
permanen
hyung
memeluk
tub
sesaat
##uuu
pemakaian
utuh
mengawasi
adiknya
##vensi
##aa
langka
##umbang
mengag
ngadain
melancarkan
##zhab
perform
bernilai
tingkatan
menko
##cegah
disetujui
jemaah
adakah
##awancovid19
parents
your
pengajar
kena
maksudnya
kupang
##alahin
balapan
diperl
doain
79
breaking
chang
##unduran
##mudah
ponsel
miliki
perbandingan
variasi
kemdikbud
batak
wrapped
zoom
lombok
anxious
diperbolehkan
dipel
bulb
##iranya
##ego
jendela
##iko
##erjakan
pagar
pisang
slam
pande
hahahaha
produc
membatalkan
fergus
##syat
merawat
netizen
fatwa
korang
basah
##edisi
memasang
bm
nab
commun
banding
itu2
##jualan
koord
##arai
pgn
##itian
##ulangi
penasihat
alun
hall
##umas
1963
##eteksi
menghar
ramah
globalisasi
kecerdasan
memukul
##ungkus
##otensi
kombinasi
development
ilah
seratus
##wn
kemah
##opedia
network
pns
memecahkan
##asin
membel
##oshi
##yarakatan
iwan
nabung
berkomunikasi
ngeh
struck
##iringi
sejalan
aliansi
terwujud
entertain
tunggu
bimbel
tahunnya
coklat
kapitalis
##gma
rama
##iew
ric
paripurna
curah
masing2
##dul
##ague
meningkatnya
iki
tani
kerjanya
kagak
timnya
##atap
dipegang
##reasing
fan
kadrun
roman
##uz
indonesi
absen
book
apa2
dikembalikan
rot
detail
mengut
offline
lindungi
##epin
haz
##ancing
ipt
##andal
negosiasi
##ulik
##etes
##ulnya
times
##ated
madinah
facing
##ejahter
kosm
##angguru
dirumahkan
khof
gue
bekerj
##impun
##endra
##ohol
transparan
rent
dharma
berteriak
memberitahu
jog
wear
5rb
jalannya
lsm
madrasah
berter
aids
##anggul
hargai
lamp
penjajahan
##orban
##ever
##ohong
cukai
keknya
right
memudahkan
##pus
mengandalkan
menghadirkan
finan
##iftnya
pedesaan
voc
muz
company
1940
reminder
kendala
rukun
tolong
khofifah
outiftnya
##utasi
ibukota
##ooo
diraih
nant
radikal
83
mengangkut
sambutan
bikin
##abumi
rod
memuaskan
##able
##yadi
##egasi
personal
dirombak
##uit
pengangg
92
##dik
terikat
##outing
ekspresi
hapus
##amer
##awanya
##ublikasikan
hipotes
##itah
soalnya
cinc
##masin
##pek
bayarannya
politikus
sesungguh
##minkan
pantauan
##ontarkan
menyem
##asain
logistik
muatan
ekspedisi
graduat
yaallah
lipat
deh
##kem
yawes
lgsg
indo
##edy
menegakkan
melatih
federasi
kerasa
syukur
psi
ling
##umah
##eck
begini
bimbingan
balas
menggenapi
udah
lad
posisinya
##kop
##eling
au
gm
macem
wahai
haf
lembar
alumni
birokrasi
yam
##12
pouting
lamb
siapadaptasi
keterb
seragam
kekhawatiran
ukt
hidung
yamau
elite
siklus
##orak
nir
##isten
menyed
pelayan
fans
##indonesi
bawak
mitos
dahsyat
dri
dz
tokopedia
natur
kotor
sev
nasionalisme
tertangkap
him
pimp
santri
##entian
kencang
menghilang
test
##emua
##agar
##virus
eko
##led
bn
##essi
social
wad
##kh
saving
surut
diteg
ronaldo
##edur
##tiban
mengusir
##──
popper
##atanan
##indar
darwin
89
diajarkan
banjarmasin
oposisi
ngej
pencegahan
900
sosialisasi
##med
hawa
hill
pintar
tra
tongue
key
seeng
fear
##okong
gabut
together
##very
ever
society
cowo
meyakini
##aruda
aing
je
pandemik
bersy
syekh
kaget
sanitizer
efisien
##rt
penu
dlu
##owning
fyi
che
mengabaikan
bibir
lut
memperjuangkan
bentuknya
nganggur
##ror
mart
person
seenggak
nasabah
penutupan
frowning
##egas
prab
melepas
techn
##sp
##atuhan
##onggarkan
libur
finansial
kosan
3m
##aparan
favorit
bahagian
dibiarkan
kira2
mempertanyakan
manakala
hambatan
runtuh
qs
mendat
##inasikan
memotong
direksi
penyerahan
##ves
menamp
duitnya
saf
wiranto
##amad
mengizinkan
1000
mempromosikan
##irakyat
angkat
berlalu
menyimpulkan
gon
harini
cc
gaza
kalender
ngey
melupakan
mematikan
gov
##ister
##idin
manapun
penegakan
dapur
##ulaan
memperluas
##olasi
##our
##awarkan
nyuruh
pembangkit
sorang
perih
##iasi
kompensasi
denda
jagung
##idaya
seenggaknya
surah
dna
bersejarah
xii
##iayai
ruangguru
##kos
inflasi
rujukan
idul
keterbatasan
baris
imb
kursus
sengketa
transf
weary
kuingin
##edo
bersyukur
benih
sokong
mikro
diwarnai
mengob
membangkitkan
dikerjakan
##3m
mars
alf
hendaknya
kkp
berhati
bawa
hun
##imanya
banget
##uro
mustah
belva
##agon
robot
madiun
kelamin
##iaga
disek
ospek
rantai
##eee
kip
implement
merokok
sunfl
fair
##aro
boj
##erensi
server
bint
##zing
saint
pelindung
##adir
perhatikan
alm
##ijing
bertahap
mencerminkan
dijaga
arum
##imbau
kemarahan
##akili
ngamb
live
raising
solar
mk
##adari
sukabumi
##under
##2in
##aborasi
gw
joko
general
tmn
domba
##arya
jamaah
berpotensi
digaji
kembar
##ijen
tiba2
wall
##ose
##ediksi
apbn
serem
##sical
sebentar
aziz
##imi
asik
nota
bantuin
komod
jk
smith
halal
membahayakan
bermasalah
sound
##ahat
berst
capres
dun
permulaan
botol
##uasan
##vel
##cak
menghidup
ngem
mengutip
ngaj
bukankah
perpanjangan
kapolda
bond
bekerjasama
mai
melengkapi
gojek
##wati
##omet
dsb
lea
perannya
kob
##aksin
pedoman
saatnya
tempatnya
##tok
ngeyel
kelau
usahanya
menghitung
afgan
##ency
delegasi
marin
##unculkan
silatur
##ensinya
andre
##afe
peluncuran
munt
klampok
kamist
pinggiran
refl
##lywood
mengungkap
##arm
tayangan
##usa
deputi
kakinya
tukar
syams
kamistanggal
rasio
nun
year
##ingkirkan
panduan
##anon
dibatasi
tercapai
jayapura
liat
mete
cu
sepi
melangkah
##andas
bangtan
mp
surv
##cast
kemudahan
mudik
sekiranya
emergency
##umbangkan
##els
bigh
hukumnya
potensial
##press
physical
spe
ekspl
kemend
beris
asuran
menump
##uansa
kantong
mendasar
dimakan
tasik
menjanjikan
terjual
rai
jember
diberitakan
hilir
conc
prasarana
kontra
ragam
##sil
seberapa
maybe
iblis
berke
dipers
politis
ugut
dibuktikan
ramadan
pemberdayaan
home
##onggaran
cre
##ball
seand
intr
ilang
bighit
yas
160
mendidik
jaga
##tory
train
pribumi
nyiny
young
mempercepat
##apolri
##erba
serat
service
open
hantu
melintas
##jag
hih
protokol
rules
##ajakan
jasad
menuduh
##antam
merencanakan
##timbang
vill
rekening
maklumat
membina
region
##ope
##irumah
berkelanjutan
asumsi
##yarat
##ianat
md
##elin
anugerah
seandainya
partisipasi
##apresiasipolri
lur
perkotaan
##indonesiamaju
busana
diselamatkan
if
##ream
batasan
house
pref
wk
membaik
kare
beijing
sumpah
##ert
disahkan
duka
lapindo
ann
sodara
demon
##itusi
klu
##idi
gapunya
mogok
93
deklarasi
bodoh
andalan
##ilm
reh
disesuaikan
kin
penan
melampaui
fik
mengarahkan
woy
##lie
##andingkan
diakses
tropis
pukulan
fau
mengantarkan
##xx
##arch
north
partying
sesat
remp
dikur
nasution
birok
diizinkan
##amuk
##ipr
indonesiamaju
##ajw
keseluruh
terpadu
pc
##alangan
negaranya
##zan
balasan
kedisiplin
sepasang
ngad
wish
ball
dn
meneliti
fitri
##impah
league
pujian
rib
pingin
##mm
##embuhan
puskes
keluhan
sian
razia
pertolongan
alq
dilalui
##iness
menyanyikan
rainbow
malulah
cib
berkali
college
akhirat
##hti
##kam
pulih
rer
pati
elit
dicari
##ontak
resiko
nyoba
perundang
terjebak
##mawan
##istrasi
point
now
suriah
mendapati
diarah
penyiaran
eug
##uch
gading
aneka
loe
sok
smua
##ikmati
sumut
##15
disiapkan
harap
##isir
palms
sampel
sbm
matanajw
management
tidaknya
layaknya
alur
##emput
perspek
nyes
lep
jantan
sayuran
##ahmi
jeb
vo
tikus
diwak
bayangkan
##nnnn
laskar
nyinyir
ngajarin
menyeluruh
mendi
memperingati
samarinda
lagian
##eduli
##irat
indikasi
pendahul
mengkritik
betina
##aparkan
dprri
diresmikan
tida
##emik
masalahnya
startup
fundam
##ilitas
penyidikan
rizal
gender
##esahkan
##tions
dihitung
##ayaran
pinj
##ogi
mera
abs
inisiatif
cengk
kekal
##loitasi
review
tunduk
alham
keberanian
##rot
##hit
##ultas
napa
dibuang
reporter
semest
hikmah
deng
bangku
##apak
kumparan
##ebutan
mustahil
ditembak
atlet
##enap
##ehy
que
wong
didominasi
##annel
##sari
diajak
tolol
habibie
scara
wajahnya
cincin
memin
eksistensi
mengungk
becanda
sembuh
coy
pornografi
kesep
slamet
mazhab
investigasi
ditingkatkan
##embahkan
blg
ingatkan
learn
##elahan
datangnya
figur
nih
##aten
madu
gtu
##wana
menuliskan
pengurangan
ceb
tanam
dioperasikan
emb
menelan
racun
tiktok
##dg
ketinggalan
alhasil
eh
##opa
larut
intervensi
memenangi
##wat
menghubungi
paras
properti
##wara
lh
wei
klik
wart
sensi
##huff
perf
anark
merangk
mencabut
cos
wabah
##antungan
roket
lidah
wajibkan
redaksi
audit
ringk
##roh
buy
##isnya
formasi
##anjaan
lisan
akurat
tuntas
##mud
semestinya
pakde
touc
stan
jay
pkai
eg
ngomongin
wed
sekalipun
sekeliling
##ector
##bukan
diputuskan
sunflower
mui
aer
wes
sparkling
diarahkan
menggabungkan
ler
##awe
tayang
##angku
jelas2
##ehkan
alas
##kemdikbud
##astik
pengangguran
karim
dulunya
pbm
##olisian
##ming
ksh
harimau
mass
##pret
##ebes
hidangan
sdm
bagi2
##enggam
##ket
2k
free
inspirasi
problem
ron
##inder
state
##ediaan
bermacam
secepat
bait
kesal
sayur
dahlah
komoditas
##hai
keliling
belahan
ment
didi
bensin
maut
hutang
##klusif
terkandas
##qi
coronavirus
raga
##timewa
##enter
sarang
sehubungan
mengkr
yason
tunai
maul
mendominasi
malaka
##angsungkan
nt
unggulan
lumayan
research
ill
argumen
penyimpangan
betawi
##okuskan
awaren
##andar
bersab
kabut
mintak
##was
##ics
hr
steadylah
majlis
cair
subjek
ngerasain
##emo
gresik
simak
konservasi
tersel
##esaran
dikab
awareness
beasiswa
yasonna
dilindungi
segenap
##oding
hampers
##enom
b40
ry
screaming
insya
penyusunan
rilis
via
##alar
kerajinan
sosmed
kelangkaan
pract
hormat
##onfirmasi
petinggi
viii
dijauh
##abek
pengantar
##anggih
doll
##rakan
eksplo
woi
##endang
mengenali
berlari
practise
berwenang
##creen
perlengkapan
dengerin
uwu
##imak
pastor
prokes
persero
loc
penghormatan
memuji
reshuff
##bbbb
jet
ulasan
mengira
130
relevan
merancang
berstatus
##indas
blom
pengab
diperd
udahan
pandemic
menghambat
bijak
bbc
##bau
privil
gp
ratus
tay
masak
huh
bioskop
hiring
bln
##ahatan
meramp
sama2
shin
gatot
memerangi
##akaian
##atic
amalan
##ople
gund
##zer
panik
istirahat
##isik
team
##du
penentuan
newnormal
kecantikan
transisi
street
dipertahankan
yahya
iyaa
94
bng
sertifikat
##ternal
penjajah
jenjang
ayu
berfikir
kehamilan
rang
##tika
sgt
perihal
menuturkan
low
optimal
bit
kedel
termiskin
asalnya
##elat
25k
ngur
pencari
penembakan
gede
##ame
domain
tabligh
miliknya
##rir
sinus
perselisihan
##agas
old
temenku
dikunjungi
bersem
menghalangi
blowing
begitulah
menyen
tampilan
katarak
ketahui
##jikan
##urian
jepara
lingkup
bersabda
pomp
cic
semalam
garut
##samp
wawasan
mos
runtuhin
tertib
berkes
instruksi
##ews
##ifi
pencemaran
intinya
sinusitis
innal
dipicu
110
box
##yaan
hisham
nasihat
wuhan
##lines
cases
lelah
asrama
usianya
##ring
arsitek
alkes
barulah
govern
senayan
bersat
ustad
memprotes
##aun
pulak
##igami
##ekonomi
berpakaian
##ajarak
sederhan
larat
merubah
primer
alhamdul
hp
nyamp
pelantikan
##emenin
ktm
office
brunei
dprriapresiasipolri
sekretariat
penanggulangan
wkwkwkwk
duit
revisi
netijen
##idu
matanajwa
##prov
jud
wae
kembang
##irahat
hantarlah
bertarung
tercipta
magelang
dibilang
##ucipt
menyajikan
penjuru
mall
cuan
##rinya
py
pelukis
head
paradi
##ren
diundang
recon
napas
kuh
walik
kolom
graduate
pemk
kios
smpe
white
memori
kristi
nnti
lup
upsi
pist
standard
tamparan
##ww
watak
lats
bawahan
minoritas
125
snee
ss
gin
sb
##apor
##jd
sendirian
##ingetin
anggapan
segini
##ush
nuran
sneezing
##alamannya
selandia
lembab
lepastu
tenggel
zy
##ingat
bersiap
diti
ngambis
kepadamu
leste
tingkah
##batasan
penip
##sigap
taat
channel
exo
kaka
sent
##illahi
elp
merapi
keliru
konten
teras
marg
psikologis
buj
tentera
emosional
##alonkan
singg
yusril
##etabek
##ucian
jaw
##19
indikator
games
pembunuh
peti
##unter
covi
lead
##rex
cireng
##elak
anime
berdaya
pemanasan
putrinya
ted
##opo
stok
keta
pengemb
acc
spotif
fant
asa
performa
diperbaiki
sex
##orangan
selanjut
anggur
pakan
##malaya
##iajak
2x
ze
reconsigap
pelan
hikm
menanam
pantes
pengangkatan
keterima
spotify
twt
disusul
tris
mach
menunda
engine
premium
arifin
demak
publikasi
hub
mingg
terdahulu
latsol
pinang
##ixix
mama
presi
buktinya
penular
what
jawatan
kelaparan
##dad
##amal
bertajuk
gang
perpanjang
oligarki
dapatkan
##lop
dorongan
##ardo
##bantu
merak
tercantum
dibenarkan
tasikmalaya
touchs
##opoli
##ies
touchscreen
zyrex
macet
kirain
mantep
seharga
shar
manga
##18
kenangan
timeline
##omod
##estarian
semac
metal
kontras
##ajin
kedep
dw
cho
##antauan
##hlas
1m
dy
zany
berputar
ish
kemampuannya
mode
adlh
singk
perus
efisiensi
##une
interaktif
perban
##emasan
semester
##osit
diteruskan
bayangan
hilangnya
##usuk
polis
dihubungi
derma
jatuhnya
seret
percakapan
ibuk
##entil
nope
bre
##percaya
ilahi
##rad
##utra
gener
exploding
jurus
od
senyum
airlines
gampang
kakaknya
terhitung
##16
editor
##tukar
spir
##tical
cakep
pandem
seketika
menggerakkan
diucapkan
##eport
berkons
ketup
tp
##resiasi
astag
##misi
buzzerp
##ree
adaptasi
room
ster
##aharian
##estik
1441
road
##je
masyaraka
tawar
bangett
nahd
pekalongan
##istis
kondisinya
demonst
mestinya
kmu
lapis
econom
##hlak
melekat
poket
bijaksana
add
##40
##ssss
##ody
##ahiran
bai
##flix
lbp
og
bonc
##ebalan
aust
kesad
parcel
hem
mada
melon
silang
peredaran
berbanding
mess
cuba
##emon
menaruh
monolog
sulung
bonus
sq
menindak
sudahlah
##intir
amalkan
##eru
ditunda
relawankemdikbud
##ancurkan
shang
info
pengantin
eduka
berdekatan
penghasil
insan
konvensional
dikhawatirkan
takutkan
##buds
seimbang
siapakah
science
elpiji
##uara
dai
boro
berdasar
leave
maen
binsar
sydney
jago
ingatan
dikumpulkan
alhamdulillah
kutipan
menyatukan
kissing
##bers
brp
##aling
otw
sdn
tit
selamanya
adu
miris
##egeri
##isnis
budidaya
maba
salim
dalil
dmn
canggih
##208
nasionalis
rekayasa
perbeda
memasak
mobile
nikmat
##istribusikan
penawaran
berkomentar
menip
nikah
skandal
foot
persediaan
kebijaksanaan
gaboleh
##usantara
rakyatnya
belaka
bacot
keluargaku
tatanan
malim
pengajian
inginkan
deli
kuta
pembiayaan
alhamdulilah
menghapus
first
segalanya
##yap
jelasnya
opsi
##cha
kebayang
mengelilingi
business
demik
memantau
penanaman
##andemi
aje
##epak
maf
sj
ringankan
##13
bk
sman
##bong
grgr
tatkala
buang
kawin
##ombong
menyerukan
eri
klasi
jgan
nerima
senj
found
ck
lantik
boneka
ngent
mention
berked
##cegahcovid19
reguler
memunculkan
achmad
membayangkan
##irrah
nin
100k
##ralia
rm2208
##arut
dihancurkan
penyalah
hamp
sebahagian
itb
reksadana
ai
suaranya
merekam
luck
rez
refer
memajukan
##uare
##osari
konsekuensi
ambisi
dipelajari
daw
keim
genre
kedelete
##anjak
##ters
begit
ngingetin
##red
gold
##ilk
kru
hijrah
membubarkan
mengkaji
indonesian
walikota
religius
jendral
clos
##anting
antusias
privilege
oknum
##aban
lampau
dibicarakan
jatah
##ibu
potong
perbelanjaan
herman
rempah
##ire
##terinya
bela
sholat
centre
frontlin
ironis
implementasi
skg
opo
mengangg
brand
balap
desakan
soek
bego
water
coron
platform
mendampingi
hok
perluasan
ngurusin
ppu
brown
kejagung
paradigma
kepresidenan
kunjung
dilepaskan
##sesi
##ttt
##ruk
weekend
munir
bangka
##aksasi
##lai
any
pemberitaan
syarif
gae
ngadepin
dibatalkan
alkohol
netflix
wifi
##untukindonesiamaju
ditekan
smg
##anduk
ganja
sti
##ossom
merekrut
beran
shi
instruk
ganj
disukai
lisensi
##bab
##orejo
melihatnya
waspada
ikhlas
blossom
riz
##ukupi
petrus
fried
penind
arya
##udayaan
moneter
##food
dilanda
japan
sepup
##quare
tips
puskesmas
berkec
##auan
orng
nda
##nanya
##oria
##ider
polriajak
##oring
jegal
beliin
bima
##firullah
nemenin
menurutku
pengawal
disem
menimb
hero
trending
substansi
dc
##tel
disney
jungk
sib
diseb
gum
imigrasi
##ayanya
people
celah
##oney
jombang
##afat
bri
traveling
steam
t20
nose
minimum
##orup
muridnya
porno
taunya
islami
##tarik
##ms
separuh
seksi
konsultasi
nyeb
identik
mimin
kekec
elaun
##atria
##ecah
dijauhi
pelonggaran
ketularan
jomb
datar
sandi
ongk
whats
usrah
besoknya
##umo
##akuin
##yaratkan
proposal
##angsit
rahim
menyesuaikan
##uciptakerja
##aci
bangkituntukindonesiamaju
korp
##uarga
orientasi
makmur
kedisiplinan
##eldoko
tugu
##used
makannya
##incian
##ergerak
minerba
ganjar
eksploitas
membongkar
buahnya
banyumas
dikendalikan
##25
##awak
##usuri
moeldoko
eksploitaso
diponegoro
klasifikasi
liburan
##wil
##amaah
cris
fadli
dgn
##set
##adaya
pedalaman
kesejahter
memulihkan
diwakili
pori
berkah
repres
kedepannya
stabilitas
expres
##otika
kegag
mengontrol
rm3
mg
##dn
himpunan
lebanon
##ify
mengawali
##iap
urg
khat
140
kesini
##ihal
mengerahkan
berujung
jga
expression
trm
sekjen
##rag
##anggon
bayaran
puji
kehancuran
##uck
baksos
idup
poster
tama
##inf
expressionless
grab
##angsa
taktik
##cot
fung
berkerumun
kreativitas
dikaren
sendirinya
ceramah
pit
bulannnnn
siagal
lestari
apartemen
seru
universiti
benur
mng
senti
perkumpulan
bertanggungjawab
##olas
ditak
##tipu
td
suharto
word
menanggung
##enci
##wit
diluar
##ariskan
seumur
snmptn
innalillahi
##arkah
segitu
kehidupannya
170
yaamp
mikirnya
##iiii
relawan
marketing
mbah
nampaknya
nafas
##iya
varian
relaksasi
magn
johor
siagalawancovid19
persever
ukm
persevering
ginj
kodam
alquran
followers
##pect
branding
hana
mind
##ㅤㅤ
seja
dipikir
ava
berker
##isisi
##gerakan
solidaritas
##umpuk
pembela
pahit
myan
memo
terpengaruh
trauma
webs
east
iso
sky
hengk
##17
sertif
lenyap
##bangkan
tersembunyi
didapatkan
##14
##huk
berminat
tanoe
kemer
acuan
rapi
well
bebasin
pelit
dikelilingi
bertekad
logo
##ext
pkpb
seberang
kiamat
suap
iku
##hk
##oku
menyalurkan
kekh
wangsit
grimacing
##esahan
kateg
menunjukan
##ebutkan
learning
tulip
dipecat
ulah
ref
##itip
maksain
cianjur
selam
medsos
penyalahgunaan
##ihara
golden
kuburan
repost
jeruk
whatsapp
bunda
pnya
myanmar
##rul
##iapin
membuk
nurani
daily
##amen
pengembang
meminimal
menyumbang
##htiar
ngikut
menunjang
##hhhh
astaga
terbilang
menges
agr
dipotong
harun
jabod
asm
sleep
kekacauan
bim
masy
fm
dihar
diusulkan
##enj
##hal
professi
pembatasan
diragukan
buaya
##yur
ngatain
lahirnya
##irl
makalah
##ection
depres
posting
kolektif
kepemimpin
##onggarin
jalan2
##angkang
kebersihan
##alth
demo
ranggon
10k
sudirman
sony
pencurian
natalan
bahu
diperintahkan
##acap
dirjen
cut
diplomatik
kebencian
khilafah
thail
##ulid
perhot
indiv
pran
##adik
pesanan
arahan
alert
simpang
legal
pilar
##ptn
urban
kyai
mov
mere
kemarau
##ondong
##arinya
rit
##cl
##uwangi
##jaya
debu
dikasi
##ulsel
sumberdaya
##ernah
ombuds
memben
rmh
ceritanya
mengeluh
fox
berad
pentas
silakan
penempatan
depannya
marc
penerus
niaga
kit
menggali
emng
ngapa
lek
tempa
sampaikan
perlunya
kejam
mim
yh
laoly
mudahan
nges
mengaj
djoko
perhotelan
pij
pengkolan
hasrat
depresi
ombudsman
lambung
pom
dinamika
mulyani
ngentot
banyuwangi
janda
gib
##integrasi
##ors
fred
##online
nyalahin
civ
##ukah
rajin
perizin
ther
smoga
beat
penyelamatan
##jr
bersekolah
##ble
##dekaan
perhimpunan
##oint
##tak
##dir
menguji
##anggal
ketu
have
vers
agaknya
propag
didu
bertolak
##ubur
diliat
##ingati
##shit
2122
hati2
humas
##bantuwarga
wit
##apis
##acak
kirim
##uting
dihormati
perpecahan
pakaimasker
diperkuat
proklamasi
ye
ketid
##aras
sebatas
ummat
##olok
jilid
cebong
toyota
menuai
reform
cilacap
meminimalisir
##kuit
gim
gapulang
gerbong
nyeri
adl
##uyur
##ormat
##ewnormal
daftarnya
teng
disapp
nyampe
imun
karawang
rol
kontroversial
project
popularitas
tolak
analisa
dog
##edang
disappoint
bachtiar
gusti
tepung
nol
increasing
momen
stres
bersamapolri
pasuruan
konsultan
ginjal
bersamapolribantuwarga
anggap
ditanam
kumparannews
##uarin
membuahkan
chair
tanggungjawab
##atuh
klinik
brimob
##lon
kaunter
atasan
blue
students
##⠀⠀
faisal
lon
jomblo
opor
nd
disappointed
gapernah
kebandung
mencukupi
toleransi
menandakan
##rek
panj
berib
its
cim
##lement
##tics
shope
jugak
##rakyat
bedah
obligasi
aji
##len
ngisi
##uuuu
manusi
perkembangannya
mutiara
wel
disc
pangkal
memus
nged
praker
fess
hamster
silahkan
pengar
##peduli
proporsi
great
lucu
penjahat
##eme
tegak
bgst
netral
pengabdian
ngopi
ditangg
##home
akta
eksklusif
##wayat
user
elect
enaknya
lic
emisi
##br
##aster
##van
sekalian
doc
kadi
kemasan
kemendikbud
disita
##aktur
angry
kanc
watch
##ayak
full
##tle
goblog
jav
##antau
ibarat
berny
ntt
kerjaannya
individual
dipul
pewaris
##66
esa
wu
abang
much
perampok
pena
bsk
bertempat
##ede
lord
bullshit
liang
terserang
pemudik
perhiasan
##vo
##juta
pengaw
bully
##mng
##zen
pahamify
##ication
rint
##kantoran
membiayai
penyediaan
mered
##umkm
##ujui
jawabannya
sensor
pilpres
##ancial
lia
##asiat
brebes
gilaaa
event
##adiin
skema
payung
##unting
##olis
drastis
kemunculan
##▔▔
##agri
penanggul
keberadaannya
##tui
##aikin
hollywood
gow
swadaya
##papan
dipermudah
paskah
jr
ruh
menantang
terhubung
cia
##usahakan
berakhirnya
##pedul
manage
slogan
celana
fk
sentiasa
terendah
orig
kekecewaan
menari
evakuasi
politiknya
ketert
##ingi
pre
berkarya
balikpapan
variabel
positi
momentum
jamur
know
pg
abi
usus
pengujian
ngambil
order
##opor
1939
terob
##bole
influencer
##itia
bumbu
##amerkan
kewar
##━━━━
keluaran
nyiapin
insek
ngutang
mengecam
##guruan
menghidupkan
darinya
bisnes
ketetapan
kalaupun
ain
##timb
korps
bep
jungkook
berpengalaman
fajar
berinter
menghukum
##spe
177
##itraan
##arta
sejahter
##right
inikan
least
diiringi
ngant
##ecial
##osistem
frontliners
sejenak
##jub
legend
##asehat
closed
kelautan
bertempur
kiranya
penegak
##ision
##ots
candle
diukur
cerah
##eeee
sty
mahasiswab
##eles
kejamnya
##edulian
kaitannya
##kn
misterius
mendaftar
jadilah
made
mony
kemakmuran
mengutamakan
pok
ste
##ateral
##urna
##ador
harv
ugm
dijadiin
rind
##eliaran
terbiasa
##prokes
biayain
##zed
perawat
sala
lob
kerjain
taksi
kasihan
##ongin
dng
dangdut
esensi
pengenalan
##angsungan
dicabut
monitor
##ful
yaman
halim
risma
wood
bermotor
bagaikan
pilkad
electri
hihi
friend
putrajaya
view
tadinya
##con
insekyur
pengorban
diklaim
dilonggarin
apc
berit
poligami
ayok
settle
pacar
cmn
lt
tod
perniagaan
percay
amun
menanti
kepuasan
mincot
moots
dinaikin
sponsor
brigadir
debat
penganggur
##ambatan
stlh
hadeh
bent
##ipper
##bumn
caw
dinikmati
ied
##arantine
profil
turunan
prabowo
pekerjaannya
berbau
bersedekah
##with
memancing
ngec
ombak
habitat
melah
nick
##emari
diwawancara
jalanraya
segmen
victoria
##uarakan
sulaw
##allenge
keji
kanal
clown
manager
##anggang
edit
segan
##utang
##iety
##mon
##yarl
##usta
pertanggungjawab
genetik
negar
mtk
nyesel
download
foto2
##21
diagn
##enan
ana
didorong
##bir
polsek
audio
kempisan
fas
menyembuhkan
nyamuk
##tter
diorang
##ilas
akting
##ampas
tanyarl
##atut
anna
kartun
##krim
vik
konc
tembakau
akhlak
##reasi
ika
just
plg
veteran
iq
quarantine
divonis
beralasan
singkatan
##lex
cokelat
preman
pemr
privat
##aaaaaaaa
muter
cross
berinteraksi
##tn
pengemudi
hmmm
boncengan
kamus
widodo
sofyan
diwujudkan
cermin
##imba
mengerikan
##entif
pistol
azhar
##latul
harto
mengekang
menunaikan
titip
serumah
##★★
sans
gaess
rentang
tekad
menyikapi
komnas
##ekerjakan
sentap
berhadiah
orangtuanya
##dd
##zu
##lindung
kokoh
sewa
##ahaha
kritisi
heb
##obatkan
unam
sebarang
jong
sejatinya
shal
menguat
pusing
lit
terputus
electrizen
pings
eksport
indramayu
dprrik
october
kesus
ig
bnyak
##hentikan
luasnya
kotanya
##negeri
##well
ultah
##elanja
salju
kecilnya
kesab
sulsel
asabri
##ski
##enis
##pandemi
##nie
##arman
berdosa
asian
mub
##opot
spanduk
chen
bisanya
santai
mahasiswabergerak
berdiam
nitip
350
panti
diwajibkan
pesen
pengendara
hemat
trav
##speaker
loudspeaker
dara
panel
liku
neng
tulisannya
hara
##opi
##masalah
biarkan
projek
dikonsumsi
##ribus
##idor
membesar
fpi
pecat
15k
oscar
dinamis
tbt
memak
memperpanjang
baik2
memutar
umr
gurun
##zar
##enuhi
kerbau
bersumber
ekosistem
##odean
jahanam
persembahan
pertu
track
educ
diare
##riend
##oan
##umbu
##jad
feb
parno
aur
kemana
##ship
##bulan
diingat
last2
eb
##inis
defin
bernyanyi
##fon
##ehensif
ekstra
vonis
pendidik
tbtb
amanah
bentrok
##omendasikan
##jok
hiasan
##apasan
basket
geng
##eto
masya
action
mengalihkan
pla
pass
menginap
wijaya
sew
berup
benang
tangguh
ade
mengawal
decreasing
integrasi
##istiwa
##ason
karna
perkampungan
partn
penyelund
mengantar
yur
menganjurkan
##pel
ngomel
merind
jang
##etti
mindset
antik
digel
diskriminasi
##lek
memarahi
##hianatirakyat
sumb
wkwkwkwkw
##tainya
simpati
arief
jurang
beristirahat
bertepatan
keringan
layang
yosh
search
code
spesialis
tuaku
mengakses
bsa
kaku
mainan
keberangkatan
kegelapan
fauzi
paspor
dung
ongkos
jung
mahat
dikarantina
marzuki
posko
##24
ikutin
##ayoran
waris
dibubarkan
matahin
perindustrian
berkali²
##andai
##agakerja
karyaw
bukhari
memi
puncaknya
##ungut
sens
sertifikasi
ump
seruan
##jk
dikh
selisih
mendingan
bik
percayalah
list
adapos
dtg
produktivitas
##ense
gugus
##lish
##orikan
tuh
kemauan
dikateg
kristiani
berjaga
lawa
kmrin
mikr
50jt
mengenang
penamp
##spor
barunya
##hy
udang
payah
##apusan
prima
##ceed
koncinya
meninjau
ngumpulin
ngabisin
geografi
fungsinya
ubah
berfokus
bljr
godean
polit
makanya
relasi
gelak
berakibat
assume
##zon
##untuk
berpisah
aff
perwak
ajaa
proceed
icu
pod
jegalsamp
##enak
loker
leo
##sss
vaksin
pemikir
turis
penindasan
berburu
gend
jemput
##ipulasi
tahukah
##hukam
penghapusan
pengorbanan
dagangan
##usahan
makasi
fitnah
mengorbankan
shahib
inggeris
mement
punah
konst
control
##acun
about
##anaan
seorg
##asm
mangsa
menyalahkan
susulan
bersemangat
##uncak
diin
##onald
curiga
lot
herb
terpencil
terbalik
pingsan
lapar
##utbk
diakibatkan
light
konsol
##ografer
nuh
##aikat
disuruh
##asilitasi
tsb
komprehensif
sau
##uaikan
penjagaan
maskernya
simal
halu
merk
maksa
sesek
##arkas
##etas
bekerjalah
indik
jualin
cand
uas
ambulan
anarkis
hiks
ges
dokumenter
keny
mengkonsumsi
bukber
transformasi
terry
singa
apple
##aaf
gond
berpas
##cent
##usinya
pengunduran
yi
nolong
kelanjutan
20jt
20k
tombak
##ehe
##lean
sour
##timasi
ternama
##endalikan
membolehkan
koin
kostum
kement
didisk
##kak
ongkir
##yen
serentak
##opang
batalkan
##antuy
##epel
propaganda
meriah
caption
##log
##iprokes
##ekut
kron
bangkok
ranah
patroli
akuntansi
syn
degree
jegalsampai
titi
naikkan
honor
##aluan
##akama
nyangka
joe
bina
##sai
berorientasi
##kkk
merata
spbu
simalakama
diger
cemer
terakhirnya
nahan
manual
tidaklah
ijin
##far
princ
##gs
ketahanan
tren
rakan
diusir
ngasi
sensitif
##dah
##oldas
##ialog
manif
rentan
nekat
berik
##etkan
irama
lega
meren
nyany
##arannya
rumus
##anggulangi
gabakal
salahkan
kartini
basi
atuh
gagalkan
paten
nk
tired
numpang
##argetkan
cilaka
##eprek
##anga
seoul
teratas
terlarang
sahabatnya
##inget
penyaluran
sukarno
##entase
izinkan
mojokerto
instal
scroll
symb
depa
kepedulian
mengulang
history
##psbb
kesalah
##abilitas
berlar
guis
penipuan
jokow
##otek
ikon
##ungkam
diet
transmisi
bendungan
kkn
##enta
##ape
ngeluarin
reb
berpegang
bantah
##gb
akunt
##arifikasi
geprek
asn
##ilkada
menempel
untk
##row
logis
terhormat
hary
175
##ualian
##pid
mmng
##opia
patrol
sanksinya
wolf
##juan
identifikasi
105
melompat
kafe
##idap
jkw
america
##ias
tunj
nungguin
##abul
penataan
dukun
kental
ngajar
pnbp
alokasi
kutuk
jumpa
kaidah
sempena
##andakan
##erth
##ikeb
okay
otonom
melukai
ceo
tps
##nt
perjalanannya
##hur
indosat
upin
##com
isterinya
##aikum
batubara
antrean
hashtag
mensos
konfirmasi
twitter
dikurangi
menumbuhkan
kesabaran
duet
honda
##ampingan
sikit
diut
##ucin
personil
ego
##xon
##22
xixix
tulus
mentang
##rough
ipin
##aing
beribadah
##ces
lepasan
##edukasi
mahluk
mayan
arsip
##ule
bergel
valu
##udian
plaza
1928
nyanyian
##egar
utk
##wh
ketergantungan
##hh
mena
menyangka
copy
meniru
##ewakan
prev
suw
jelek
##irin
##ss
berdialog
emirat
refleksi
mampus
nolak
jelasin
iain
##ofesi
penasehat
melemah
dianjurkan
tunjangan
tracing
##awain
waving
dimata
mewarnai
kuy
mesjid
slalu
kehadir
diriku
savoring
dikala
borong
nip
energ
masyarakatnya
offer
fandom
##jono
ngg
tew
henti
sebenar
##uation
usa
##lanjuti
##ihatin
sesekali
kurikul
jarum
didiskon
pengumpulan
bawain
ngikutin
kristal
cep
neo
terinspirasi
ketenagakerja
terkend
##wt
##ehyun
kemenk
##ully
menghibur
beraksi
##beer
kesenangan
lilin
lemes
dihapus
penyebabnya
menyinggung
membludak
1918
nahdlatul
gha
##abang
akb
##rang
diabetes
nga
##emin
##elaran
melapor
arn
##mudik
hung
virusnya
pengotor
bnpb
bakti
ngeg
esok
70jt
2beer
ready
kesedihan
blo
overth
dilatih
dine
penyu
unamused
rantaian
bini
bngt
muntah
ntb
ly
kerak
menyertai
mohamad
bartender
pke
mabuk
tombol
##uja
##emis
konstitusional
memengaruhi
cemerlang
aturan2
pelac
mengolah
memberlakukan
##erakkan
ekspansi
##oooo
pengisian
trip
##aco
twitt
sumbar
jubir
pendukungnya
##uster
pesaing
gurunya
gunawarman
ops
kedelai
berpel
sea
semalem
punten
peru
apel
onlen
insecure
pencuri
ketertiban
subang
wibowo
tambak
mbak
done
##yektif
menguatkan
leng
##ald
menatap
temukan
bala
##umham
##obo
devara
heart
thd
wira
benny
situation
dirgah
8k
worse
##gagal
sod
##tttt
##erin
##jokowi
rangk
4m
##vis
##alog
##allahu
yatim
kedamaian
kebing
sinet
bengkel
semin
pelat
beranggapan
sumedang
##book
pertanggungjawaban
lho
balita
testing
teriak2
kurangi
disadari
mn
rating
##newnormal
##asik
pemberi
cah
sv
##60
##apkan3m
faham
mostly
kepergian
vital
mengar
soet
ngaruh
hari2
subt
blogger
bubaran
memaparkan
##dri
doy
banyuma
##awir
jek
##opin
kamunya
##opuler
sistematis
##jagajarak
##gro
badannya
selangor
nastar
yun
##eret
sekuler
sukarela
irit
sbn
kebajikan
##untukindonesia
positive
##egon
##ramadhan
bensu
##uduh
cul
petamb
penandatangan
gofood
##antunya
##emangat
dont
sembari
misa
waduk
1043
mengobati
##ging
kpoper
night
literasi
meroket
town
sleepy
teringat
##istensi
##oldasulsel
diy
tamat
anxiety
##ett
bereaksi
keters
bayar
naungan
ria
##ahaja
##ion
ngirim
diperlakukan
berpuasa
##stil
june
dbd
luhur
peratus
gaakan
mingguan
##low
haii
dibelak
cow
barengan
mengutuk
##oting
##ingatkan
penguatan
kebingungan
victory
dibalik
##eransi
##itiman
design
benak
topeng
auth
rc
gega
linked
pokoknya
gelas
rincian
##dek
dihindari
pandjaitan
tweeps
smir
##kat
liew
langg
djar
kondusif
miring
dongeng
pemir
deal
hop
kemaritiman
skip
##ute
koridor
oiya
membandingkan
hans
bukopin
lorong
##anu
##borne
terhenti
tbk
imbalan
etik
tinggalkan
hitungan
bnr
smirking
chin
dijanjikan
mengkhawatirkan
foundation
cott
m40
tn
viv
penyembuhan
bodebek
prom
oversi
airborne
mempel
diimp
##65
other
berenang
cemas
kelen
july
##agakan
deta
yen
terjatuh
##ign
ngene
njir
chap
diom
respons
ventil
arak
memburuk
negara2
persaudaraan
nigeria
pik
tagar
cin
saingan
kisaran
ml
riil
kesiapan
bocoran
kempot
pbn
jeff
##dur
##27
perbanyak
bell
##urch
prihatin
##ungkas
wkwkwkw
seleb
keliatannya
didalamnya
ayoo
dprrikhianatirakyat
ayyy
pemindahan
##itahuan
dapa
##akata
asyik
aqu
bantul
purwakarta
##bin
kpopers
fortun
barca
istan
##bor
mengimbau
##writ
segampang
108
tekstil
maafin
##ampang
warganya
perda
##ihatinkan
percepatan
##timbangkan
hawai
huhuhu
teladan
cikgu
mantap
renang
##act
##ixi
diuji
##emukan
mendeng
jaehyun
sepatutnya
##irus
kejutan
pemberitahuan
dikabarin
kebanggaan
island
##umpah
praktisi
##dar
##upsi
kontrover
nilainya
482
oversized
##ument
koneksi
##writing
catetan
dialihkan
mengusung
rata2
##xia
ditengah
##ongkong
apo
indih
##ambungan
jepun
hobi
##isma
##prok
girl
##cr
##imuti
##inggo
aa
alp
hold
trik
klip
rk
##areng
satwa
sams
##ontong
hshsh
##egram
yon
bubarkan
temenan
##ipolri
lakuin
dirimu
##ihatinan
got
kelg
##odoh
jalanin
cis
dpo
regulasi
malunya
mengap
##code
bergulir
bandel
iklas
##gram
sekurang
bales
copywriting
menggul
metod
sopan
sedihnya
##infektan
siswi
hier
##otokol
##emu
##imia
untu
instalasi
kedai
ferdin
##anjur
steven
belitung
mencalonkan
ditel
monggo
mosit
##versi
billboard
ballot
semak
kura
keajaiban
disalahin
skinker
partisipasicegahcovid19
##akak
##encian
barisanprok
pengurusan
mamah
bulanan
aktiviti
nyel
lumpuh
resign
radikalisme
115
dungu
tebu
braz
rezeki
terkini
karnav
5jt
##engin
##bh
lear
sajak
kenikmatan
olle
cast
dorce
peternak
ojk
keun
##ongi
##ried
penasaran
##kanya
##jab
memperingatkan
##bc
ferdinand
##tahun
cherry
apresiasi
penggem
ihs
terkes
dirgahayu
penundaan
pelopor
ridwan
last
iya
burnkan
##omen
bucin
168
##odal
pelep
malas
idris
umumkan
youtube
copot
takdir
pencaharian
transmigrasi
corn
teliti
berpihak
fortuner
dihargai
fee
keprihatinan
##year
##ongg
ehh
orient
##baik
##ating
geg
perbincangan
miskinnya
dala
effendi
bajuri
##edahan
barisanprokerja
trade
akademisi
dimengerti
bener
jakar
disalurkan
bca
##tom
mutualku
107
election
cli
##mod
agamanya
cpt
sag
statusnya
meragukan
##kita
infograf
pribadinya
ditimbulkan
mh
ilm
##hlist
ming
##okasikan
cermat
miti
pernapasan
sarawak
mendekat
ilustrasi
haloo
rr
taraf
teu
penyes
aktifitas
##yaratan
ijazah
##dp
turunnya
##lot
disekitar
pergaulan
diatasi
200k
ditempatin
diolah
mahfud
bungsu
wishlist
##idupbaru
##tasikeb
ente
nyebarin
berbalik
koar
konversi
dihadapkan
bangun2
nihh
dekan
pemiliknya
pial
mumet
mengesan
agam
##cik
waduh
integ
103
kecam
##sic
permata
ambyar
melonjak
##anegara
keluy
takutnya
##bangsa
burhan
rights
kya
singap
##awatirkan
card
nuansa
##engs
diputar
imunitas
reply
dipaks
##gon
chart
kls
##uters
begadang
minal
##keun
komunisme
frans
dalang
dpo13
ajaib
inten
idea
memprihatinkan
##ahh
kedung
gausa
##menteri
fp
weh
selingk
dilepas
rekomen
ngerib
earth
pdhal
gagalkanomnibuslaw
nok
##xt
##etar
siaga
basa
sarat
kubur
yusof
sabah
mositidak
bone
haj
##ben
layan
bubb
ungu
lama2
syuting
keimanan
bersahabat
koh
##ekalan
##acy
keluyuran
tuduh
beperg
insight
becak
menggi
finally
ketidaks
potret
timbulnya
survey
lengk
penump
nawarin
stop
##ghur
orderan
##djd
catur
komoditi
overthinking
stroke
penyelundupan
ancam
penjarakan
menemani
pemirsa
peris
pray
story
food
narkotika
sper
blitar
nf
ngira
##icil
itupun
makro
sebar
##joon
gajadi
##bek
##due
##inton
director
migas
dg
##eraian
118
diproses
memberantas
kepake
intensitas
##siapa
oxford
takd
##elo
pencerahan
menggemb
duni
berlarutan
berkeliling
moch
bdh
3x
sleman
##shd
##berkah
##23
##isakan
##tasikebiasaan
kagum
indihome
pelec
minang
ngar
##lment
meet
technology
bole
onsu
##untukkan
adain
##ayangk
##usumo
peluk
berbeza
beginian
asalkan
mencium
##ekal
menyak
karnavian
bilik
caf
ptptn
arwah
bercerai
ksk
##43
ngejar
proto
tauhid
ketersediaan
struktural
installment
penekanan
##abisan
##efit
fundamental
pengaruhnya
mawar
keilmuan
##itahu
grafis
keributan
##vid
##ubara
127
barangsiapa
quarter
##tib
kongkow
mulus
cew
kebers
mengharuskan
stim
skali
##shop
koala
merep
busuk
spesial
##itno
##ancel
bubble
manuf
idola
dikategorikan
domis
kedekut
pampers
optimis
clo
niii
fun
##angkep
paral
stock
rasakan
##ete
dream
chartnya
sejuk
##antren
rendahnya
drivernya
slm
beritanya
integritas
pulkam
##ebun
tre
jamu
##sd
misal
didengar
klaten
penggerak
perampokan
sabda
##djdh
hias
gitu
awal2
##apar
gapyear
membenci
start
##ness
##epr
fleksi
cuy
komplek
bayarin
hazmat
jernih
ngeributin
##etta
penentu
terjaga
penarikan
brazil
diap
mendeteksi
dipersiapkan
pasrah
cri
nurut
marak
memaksakan
gemar
melingk
messi
upi
gowa
selebriti
ditrans
kib
jessi
##imbus
defisit
spesif
niscaya
##ox
##irah
kemand
##endung
bobot
training
diangkut
gemes
sjdk
djdk
arsit
pinggang
vivy
sejarahnya
##kakdj
##doei
109
audisi
becandaan
keset
dibeb
sentra
##phone
##zy
tamil
bdbs
menjemput
force
visa
lahshd
skdjdh
bangladesh
##dyyak
lajdoei
kskdh
laras
valent
ketem
sjdkdyyak
dipertimbangkan
djdkhs
##ega
relate
##unga
penyesuaian
##dueils
pemeriksa
##ress
melimpah
bdhdisi
tempoh
bdbskakdj
kskdhdueils
janin
##pes
bandingkan
suporter
instruksikan
benefit
##ping
shanghai
bayu
dinobatkan
pramuka
multim
lawannya
lahshdnn
lahshdnndjd
linkedin
91
##jadi
nyet
perfilman
##rans
kelihatannya
dubai
gres
tut
##itim
space
kehar
jawabnya
komunik
terlahir
volt
pny
nyusah
gmna
imaj
internetnya
bangkai
mendaftarkan
zen
temanggung
##saja
edo
kolaborasi
loyo
kelayakan
menghantam
alh
diabaikan
kegunaan
eid
name
fis
gegabah
memor
membagikan
pendanaan
ll
kiat2nya
##umum
##uban
merosot
##ataannya
berdagang
motong
sekolahnya
formulir
buriq
martabat
stupid
publish
##kesehatan
ngemis
voltage
reward
pendamping
##sum
kepul
##rban
numpuk
##iaran
ngamuk
trily
perseroan
sard
##gas
tham
menuding
##iasa
mali
##akeh
##jay
dapetin
orangnya
##veaway
disin
tumbang
popular
lensa
anjim
##ekspor
##tasikebiasaanbaru
blodoh
tenggelamkan
ida
paj
##arso
dikep
5k
##osaurus
berlem
berjualan
##ready
dievakuasi
##orogo
##omodasi
syg
pendidikannya
durian
perfil
susahnya
tg
ketidakb
bye
kelangsungan
diduduki
mematuhi
omnimbus
kemana2
##untum
fina
jb
##uring
nit
kantan
sekuntum
##eksikan
result
mandat
grafik
akuu
teriak
hipotesis
cilik
puri
ngomongnya
pup
##kol
temurun
sendi
entr
already
monster
##aringan
ginian
masukin
mengamalkan
terpenuhi
amunisi
##mikan
kejujuran
cuti
##uburit
##rrr
##nisbus
ironisnya
##ette
insh
airnya
penula
##ehyung
selera
##qq
growing
##keu
melonggarkan
education
nasehatin
##enggal
naikin
dampaknya
judi
lov
dikorup
##bus
meraj
mager
##lindungi
##jam
gajian
sedunia
ngatur
hartono
index
kelantan
compa
##par
##anai
resto
snm
namjoon
ekonomis
secepatnya
dosis
goa
##aut
podcast
beh
sebarkan
gn
##itangan
viruscorona
ramalan
mike
santuni
gog
##nologi
sosiologi
biologis
bertukar
self
tempatan
frust
medium
menginjak
##estion
presentasi
fly
rabbit
30k
purwokerto
##nisbuslaw
##alakkan
pemasangan
migr
disarankan
jadikan
batuk
kapur
nyusahin
memecah
luput
inna
##amaikan
tolakom
indonesiat
malahan
kidul
salurkan
kog
samsek
respect
buto
menggugat
broad
##bb
##28
duri
dpn
mapol
menjangkau
tetamu
melayang
rev1
rev2
genc
zo
ruwet
bakrie
rl
date
##esak
mengatas
filem
159
rev3
gawe
sign
pergeseran
keluarnya
country
##ely
ilc
taehyung
keten
itung
neut
menggantung
bersep
##km
tolakomnisbuslaw
##dal
bt
napi
##onasikan
buruknya
ktp
##ipa
nanyain
##infeksi
toba
biarin
kpn
lawancovid19
question
tabungan
pegangan
maraknya
penulara
pelecehan
##rup
diakhiri
nop
bilangnya
##pedulirakyat
aisyah
our
oportunis
ponorogo
berda
##iiw
kesibukan
014
bias
ldr
abai
baterai
otomotif
750
yaampun
##usur
##qw
104
pandeg
kekebalan
idol
pear
##aksel
stayat
dekatnya
health
nyal
freeport
##epay
##oyan
reisa
objektif
mengherankan
conn
tetangg
##uld
##ways
distributor
jadiin
cmiiw
perceraian
ketum
antri
banting
##iptanya
beton
msk
telanjang
##found
migrasi
perkuat
anying
prediksi
ring
berdatangan
image
bergaya
mkn
mositidakpercaya
petamburan
kongkow2
kukuh
menaf
sosioekonomi
##kahi
pengangkutan
terjangkau
menanamkan
git
hape
kawal
##aaaaa
##ypt
hayu
sho
ngin
bekal
ov
fol
##arimun
135
alesan
topi
fachr
kabarnya
expl
taatiprokes
##istimewa
nal
verifikasi
##cep
desak
perkasa
##name
##tifitas
putranto
hal2
capital
vertikal
xx
pengesahan
dibagikan
kebon
##akhiri
rey
workshop
aga
rsud
ntr
astagh
sesak
ngelatih
kulon
berkontribusi
##iditas
pastinya
kabeh
memperlakukan
kacau
hayati
pengecualian
trilyun
sila
##urlah
##jil
paragraf
msih
bright
ija
##uska
kebersamaan
konfederasi
##aihi
fachrul
badut
x1
insentif
##otisme
polripedulirakyat
##jane
berprestasi
##uah
dead
monyet
donk
laman
nutrisi
reputasi
diplomasi
##ibukan
taruna
blunder
larisin
dijabah
salaman
gibran
tender
##back
cepet2
##incang
jouska
pengemis
diketawain
ayooo
romantis
sayangi
kompromi
receh
mengonsumsi
aroma
##ibar
vc
royong
koment
##oser
serdang
pembelaan
nich
diprediksi
tumor
belaj
cangk
take
dipertanyakan
alim
##oved
pelakunya
sakjane
kaltim
baper
bungk
sainsin
##founded
##akarsa
ketenangan
##onial
hongkong
melukis
prospek
xin
menguc
119
confounded
khalayak
##jin
call
spirit
linc
daerahnya
##jsks
enggak
andrew
##aganya
##empr
##mid
##jakarta
mreka
##ermin
becus
galau
kendari
mult
karo
tetangganya
hoaks
direm
asep
n95
100rban
##umahan
sav
modus
dijawab
berkali2
kepo
ce
period
deg
happ
##jaj
soon
leluc
astagfirullah
eksploitasi
step
sarankan
kontradik
dijamin
moncongnya
offic
megang
naj
teru
##ime
menghina
meh
bebek
tercinta
rangorang
brigjen
terkonfirmasi
##astuti
##osting
ipa
##hatan
sahabatbah
selebgram
droplet
community
source
color
pelitup
cengli
infografis
##pcs
kaf
##angsel
tumpukan
bismillahirrah
##ading
menyumbangkan
hny
##ats
daft
##berry
piye
disinfektan
tegang
temennya
##ratis
bosan
##bby
dipelaksanaan
terobosan
manu
macan
##imakasih
pelosok
##inews
ajg
##utaran
##aceh
##oharjo
mahasis
bhayangk
separatis
gagah
multimedia
donor
hap
perkum
penyelamat
sentuhan
geleng
menteng
berkesan
dancing
hengkang
pemenuhan
ukur
pahala
strain
bawahnya
kdg
##ific
kesimp
dikr
responden
ramp
kelanc
government
provid
dicurigai
##ekam
nyerah
monopoli
beraktifitas
dinaikkan
famb
berenti
suj
##tabilan
galeri
rossi
##keras
ple
series
naruto
##kamusi
klean
155
dilancarkan
450
##pem
perorangan
diderita
rabi
##aly
##oris
supplier
agensi
trend
pastikankamusi
gaeys
##ekah
##abit
diomongin
bros
##29
erica
sukanya
usap
gratisssss
kunc
kritikan
sepatut
monas
jeda
masanya
##here
ditanggung
pelaksanaannya
tempe
prn
banya
singapore
##lak
sujon
mual
##angsur
orang²
euy
they
ketemu
kenegaraan
ekstrem
special
cover
##iakan
dilarikan
kejarutbk
sarung
##eus
##terapkan3m
notes
##light
ngangg
ksp
mutasi
lamongan
##ijaksanaan
meni
bertulis
menggila
english
seniornya
tawa
abal
apbd
ketidakbijaksanaan
kemenkeu
akademis
cacing
mgkn
##hluk
##ohongan
residen
santuy
rumor
belakangnya
mengapresiasi
##anggakan
quipper
hadapi
bayang
puny
gimana
melaka
berkont
gap
##jangan
antarabangsa
pengaduan
perkhidmatan
##udh
mafia
breakingnews
##raya
menlu
ketauan
dikut
##45
tf
##hyun
meraup
stayathome
##inkes
stress
##emui
cottage
pengin
kemitraan
gandum
kumpul2
dibidang
bedanya
cantrang
singgah
kuar
##indarik
##ompet
ayo
bojonegoro
pura2
doktr
yurianto
bersatul
dipukul
style
##xic
manusiawi
ruf
##esti
smart
belain
persentase
modifikasi
raw
day6
mementingkan
ditemani
astaghfirullah
##arno
gaduh
menular
perancangan
165
pemec
bru
menyala
weish
yukk
angket
pasif
merangsang
##ebas
pemasyarakatan
razi
##fu
subuh
diperpanjang
lapor
nai
penel
##kkkk
usd
musikal
1jt
kesak
##umu
partainya
##alamin
kramat
oran
ijo
bripka
asu
siap2
bermunculan
menyesal
ds
pemotongan
stuff
##ikapi
jamal
hm
##erumunan
ckck
goal
kawannya
##ongs
apps
gesturing
jugaa
mancanegara
anjrit
##mis
jagajarak
lebak
diret
kemensos
merta
flop
terbangun
fact
nguc
hastag
buil
taek
parsel
##merce
##irakan
omset
hushed
dipat
167
anjlok
semangatt
lop
pemalang
informal
berpadu
kumham
kerum
##soalkan
menuntaskan
kenyamanan
sob
dikonfirmasi
kompetitif
susan
menipu
dirumahsaja
marah2
aice
fotografi
##rnya
eksis
suntuk
yong
##elajar
cicil
ngabuburit
##enguk
##isal
domisili
cewek
dorong
elekt
##asiy
teruntuk
joki
ceko
mangun
##ds
##adirkan
fambest
tengku
ataukah
##ipm
ventilator
jik
##mus
##bat
##entam
alergi
##alumpur
kompor
idi
adian
abc
pulihkan
diancam
diminati
##aiz
kualalumpur
smartphone
##ifikasi
liatnya
mempermudah
##nat
##band
##hin
##ribusikan
ngurung
slama
##ubarkan
eps
lokasinya
limit
rm8
pranowo
melempar
berin
mamaku
##ritas
terengg
##jiastuti
hshshshsh
computer
dipelihara
nurul
kontraktor
terkec
heri
merinding
penghal
##ops
kera
##obos
akn
kecurangan
permohon
terpuruk
menghapuskan
yul
ngadi
##onggar
bersikeras
##oroti
simpatisan
rp2
dibantah
menampakkan
##diri
luth
toples
hosp
sahabatbahari
menkumham
menjad
mwn
ormas
barometer
penghalusan
passion
tlg
tuban
meluncur
##indarikerumunan
##ype
lyke
tangsel
kembalinya
101
yaaaa
##araku
cry
fon
biak
##uncit
impact
bkin
rendang
sombong
intan
jut
##islam
tabungannya
##untik
lagunya
akhir2
rekreasi
kiat
sebet
monardo
kewangan
duo
##elakang
kumh
skill
tourists
terkecil
ikr
jaksel
led
bio
begituan
terinfeksi
##endo
menyedihkan
speed
mengesankan
leaf
cakap
retak
reza
##ungs
##────
jerome
fatal
roll
shopeepay
polriajakjagajarak
kargo
anehnya
jurnalistik
##urity
wkt
cukong
##coming
tudingan
sambat
##oakan
jemp
##ido
spr
ama
jelaskan
mandarin
##ange
woozy
halah
resm
##adapan
poo
asw
##aksir
tergel
ibunda
##ste
nctzen
##atch
##vir
kawan2
berkepanjangan
##ices
pengob
laptop
##thday
##uny
##manirrah
memfasilitasi
timb
123
porsi
papa
##fc
cuek
bahw
##abe
##hop
sepupu
##ching
indonesiaters
mara
ditanyain
dipersulit
##ingankan
##luas
bli
koramil
##uhin
corrupted
kyknya
shooting
naiknya
pencapai
brandin
berlakukan
tegaskan
##jb
menkopol
##nsjs
jm
##²an
thai
menjel
##untun
##ribu
utul
jelah
easiy
syarik
longgarkan
kancah
perkantoran
rp5
rm1
##iprotokol
igd
esp
talk
pudjiastuti
ratna
##ucher
##yun
phy
terhambat
dilakuin
dikawal
optimistis
singapur
##erti
sekilas
nafkahin
lobi
berjumpa
konspirasi
jaring
juai
jis
didistribusikan
modul
##wk
ltd
deat
banteng
megi
##darirumah
sast
gwe
ngantuk
##arui
brg
##krak
##langga
##oret
##akaimasker
kluar
diharuskan
##khilafah
nye
bps
rin
##jdjsks
pelap
senen
##manirrahim
joke
##zhnsjs
hshshshshzhnsjs
kapolres
hshshshshzhnsjsjdjsks
##kon
adult
mengeluhkan
nasdem
rd
ditinjau
diperuntukkan
brad
mengadu
##udu
##gging
dikenai
fram
bebaskan
##26
anakku
indonesiaterserah
ustadz
luna
iyaaa
doktrinya
pj
##nutama
dibebasin
tvri
keistimewaan
manggar
takda
pelajarin
##endy
##ppu
restrukturisasi
bpip
terkendali
bepergian
lock
little
piring
dani
semut
kehabisan
##faedah
##tatanan
berterima
dikt
jib
downcast
##ipol
rain
menur
menyatu
mendalami
##urunin
ksatria
begin
bersatuc
281
jejaring
buru2
##ips
smpai
berangsur
duniawi
mengabdi
yt
sekalinya
gym
sedia
hits
legendaris
gantung
##gate
doyan
reksa
chat
soetta
postif
berpasangan
pemecatan
preloved
hbs
nafkah
dad
lurah
klau
dimaklumkan
prat
motivator
shru
cob
##epelekan
nyicil
##don
##rum
baekhyun
shrugging
##indust
##lakuan
cfd
keberuntungan
kesihatan
security
tesis
##agih
fing
mengusut
##imbangi
##══
bni
tertunda
inno
##hidupbaru
disimpulkan
perik
tutor
setelahnya
penuhi
worth
tangis
##ground
##iliasi
dilonggarkan
umroh
fuck
berbahan
##olinggo
jimin
sahkan
mencuci
##chan
afk
kamtibmas
main2
innocent
mulutnya
menakutkan
##ederhana
dkt
camat
ribut
angkot
bapakku
heh
##oven
pendi
keharusan
money
eth
keinget
haknya
class
pecinta
terburuk
weishin
instagramable
perisai
##ekalcovid19
shihab
homo
assalam
boong
##agangga
instan
##ertaan
rindu
ads
pemburu
kebumen
serbi
kayak
pile
bersinar
jatoh
uy
urgent
##lahir
berantem
##ubarak
information
vape
##atani
2020
##oblo
pembina
menafkahi
mks
ditindak
giat
sivagangga
##enin
pelepasan
nyumbang
##italisasi
maneh
roji
booming
##pilkada
dihimpun
instit
infonya
##formasikan
lukis
kesayangan
skrip
salary
bergaul
merampas
than
romo
kmb
parasit
yau
kendal
mengamuk
##unikasi
siapin
##des
pemuka
rumahmu
mepet
didatangkan
nobar
bilateral
##aafkan
##ancuran
berhubung
pmi
pent
slur
ketidakp
gajelas
##ovatif
##nies
hakikatnya
parameter
##inggit
kamer
##pal
##thn
kelengkapan
wt
1x
bosnya
filmnya
##urad
perasan
polriajaktatanan
##ugi
simpan
uno
berjasa
##ellow
975
awaninews
suga
ikuti
solok
nunjuk
duanya
collision
isunya
wishnutama
##mak
##dist
sii
jad
vel
pmk
dibongkar
bangettt
gard
anji
mudah2an
simulasi
kene
hk
toxic
pengalihan
polriajaktatananhidupbaru
dihilangkan
##essor
##loon
ngucapin
##apang
##andangan
tran
hisap
##fol
harvard
kennedy
##uratan
jakart
nambahin
bgmn
jane
melandai
perppu
kesenjangan
##ukurlah
##arangan
##ijinkan
dato
cristian
mangga
kesur
cilegon
goweser
delta
mabok
mentest
tara
##gaji
diev
tawuran
penyok
entitas
simpanan
noor
##padai
asmara
balloon
ngebahas
neutral
##odohan
listen
ditempat
reading
saiki
bersatucekalcovid19
ngelakuin
mjd
tmn2
benci
##eneur
kebanj
##rong
ajalah
manakah
ases
##bbbbbbbb
##epreneur
lelang
beratnya
macamana
##kul
diund
utamakan
belajarnya
hones
gapaham
sokongan
jp
perawan
voucher
telak
olshop
krip
##etuskan
pengembalian
menenangkan
nongol
polusi
sndiri
flash
horns
sprti
mt
strug
bismillahirrahmanirrahim
make
kerjakan
bgtt
past
##kantor
694
##uble
takbole
tetaplah
ekstrim
pemkot
pledis
harmonis
##ience
##lementasikan
##mel
krl
seta
kuas
tkbole
pelajari
##ewon
second
gejolak
undip
beribu
##neg
##taz
##ertai
berkala
gencar
moder
kenyangnya
menyokong
bhs
bertema
probolinggo
##bil
chil
professional
hahahahah
##ipat
move
kenap
pikirannya
##grasi
kripik
##ayangin
rentas
ampun
##wb
##update
penandatanganan
kemandirian
mts
##engka
diapresiasi
kenalin
dum
##ekom
act
nyambung
sudi
menyuarakan
neger
repot
blum
gatel
family
##hare
##untuknegeri
berbelanja
tund
pamungkas
birthday
wita
sinov
nega
memprediksi
merpati
##jun
hijri
kedin
dilewati
perlombaan
nkri
ngilang
honest
##mawati
amburad
##pend
menkopolhukam
selca
permen
dukungpsbb
oncoming
##uu
ramli
host
##nk
sey
terjangkit
##ampah
meringankan
penghentian
kair
bercakap
cv
berlatar
dalem
ditinggal
aula
haid
##gling
wkwkkw
asesmen
riba
melambung
urut
norak
mengesahkan
sender
noh
mengevaluasi
ax
segambut
nonton
tertekan
ngk
kontradiktif
farmasi
berinisi
harusnya
ogah
##limen
mewajibkan
exper
imlek
selebihnya
pakek
vote
carat
nyinyirin
menemuk
##atiin
##tuku
jegalsampaigagal
yauda
ringgit
##eping
##other
##insa
kbb
keponakan
keppres
ingens
abaikan
ㅤㅤㅤ
entar
pulangkan
influ
jasmani
remuk
##opun
predikat
##ampar
ngetweet
secret
gom
##eon
##engen
takutin
postingg
##itif
rebo
jubah
akeh
tajir
##kie
bdg
##ipina
kebohongan
mengedepankan
sean
##agara
keluargamu
bertanya2
penyampaian
like
smt
pelanc
treas
diujung
inov
vib
dimana2
problemnya
##fand
paramedis
mnrt
##puuu
body
square
ngawi
##alim
taknak
saing
masihkah
##sian
indos
##tice
vaksinnya
##yyy
week
jng
##ejar
pundi
ujungnya
##jai
memberitakan
yaamppuuu
paud
dahlan
saksikan
vcs
pacu
rapot
##aktifkan
sperti
jing
##jot
##engkan
rini
##paun
ibas
dipulangkan
##sampah
soalan
##awahi
magister
##obain
salahin
##untuks
onar
mnj
must
ngantor
cemb
mukul
mekar
##hon
sinerg
acak
##iput
produknya
dipenjara
job
menyakit
3jt
##jik
ngomong
merdek
##xy
ani
medi
##real
zah
##arium
memanjang
berduit
kejalan
hartamu
terulang
solat
informatika
pemicu
there
trib
blbi
##mh
nginep
anggrek
##nb
dangkal
ntah
##iday
##endahkan
kelelahan
exec
thalib
aplikator
s3
pengennya
100rb
bersuara
jilbab
hrus
polemik
##ebek
jebol
tt
##nnn
##sehat
somet
kook
##wer
die
##ulin
opname
##ampus
kecemasan
##assador
ngebut
patuhiprotokol
mulfand
pemot
gabener
tertidur
omnibuslawsampah
ganas
therm
pemprov
zombie
toserba
engineers
indomie
lai
omah
##ibul
kred
aston
menghampiri
283
merespon
notif
##anjakan
##itude
jn
cemilan
##umble
berisikan
cyber
imajinasi
hd
dipaksain
jakpus
dibi
dikaji
##orb
137
basuki
kovid
pelak
pisan
struggling
lindung
tog
pemberlakuan
percetakan
mmf
magz
patuh
teriakan
##afik
mengom
cukur
##kot
sate
php
bukaan
nyebar
kemahiran
dimanakah
143
ngehype
##asah
selagi
##entari
menja
merry
natural
snack
mmc
genap
hibah
page
death
sebb
ktt
leka
kiriman
##lion
four
jogja
##bisnis
seman
usut
exp
pertanda
##lig
kelonggaran
##tinggi
pupr
dikritik
##disiplin
putar
berant
##oha
ambassador
farma
##▔▔▔▔
asin
sinovac
type
chipmun
rag
mengupayakan
##embus
cond
##rejo
kairatu
sebanding
menggambar
chipmunk
megah
duid
ajakan
linknya
hahahahaha
parlimen
untungnya
berebut
##acita
##raman
irt
cust
##oreng
wait
nikahan
kemunduran
pcs
bergegas
muslimah
sentimen
cra
fiskal
pengambil
dikemas
dimasuk
baksospolri
##akarya
ciamis
professionals
##lantas
temu
maritim
aware
narap
subtest
gapak
hob
antisipasi
##entangkan
dibayangkan
anjay
sket
bocor
dijel
##anggilan
dinar
cec
fikiran
##agiveaway
##oyok
##mau
##aper
menghir
palm
pembubaran
akunnya
pilots
##iknya
##osir
bermimpi
wkwkwkwkwk
berpeluang
senator
nyaa
keterg
thri
follower
akut
ngek
dragon
##ipyeong
adem
trim
##ned
racing
sumbawa
hj
##niah
lagii
tahniah
##★★★★
terkuat
##gu
negerinya
spill
##nnya
##wujud
disemua
dirayakan
##pert
janganlah
dekl
bangsatbangsa
indomar
edy
##umbung
gilaan
##perubahan
segelintir
antre
kredib
indar
iri
##uak
##editasi
ast
terf
##iba
ngik
ikutan
kemenag
secu
##pm
meli
ekon
matkul
strange
wagub
##awansa
purb
##gy
melebar
pengalamannya
menyepelekan
##ungsikan
sekolahku
jrx
padam
tulung
tertimpa
rintangan
item
tinta
share
##uaian
alive
##aham
##nye
buku2
##utamaan
suri
manggarai
makan2
ojo
jor
gatal
nyobain
brader
peresmian
bowing
break
hospital
kacamata
ngep
dirugikan
due
⠀⠀⠀
pelita
peruncit
hangus
luncurkan
klustermenteri
bingkisan
##apr
moon
merekomendasikan
lebay
sukan
didek
babinsa
bubar
nanggung
ngech
onmis
memalukan
num
mendagri
pembatalan
girls
bersatulawancovid19
mengek
berbincang
diberhentikan
onmisbus
berdiskusi
dokumentasi
yogya
terhindar
sahabatdikbud
##kati
memihak
tapak
ee
rcti
apply
##yr
narapidana
##gap
sias
handsan
datab
##esss
pastikan
cuci
tahaj
baksospolripeduli
lonjakan
memu
##git
sesiapa
dibal
berlindung
mush
input
eka
pokonya
youtuber
rebut
distance
pilkadasehat
menjer
sanak
prinsipnya
##adai
begal
finas
xixi
inii
alangkah
when
ketidakadilan
papi
##erjanya
emangnya
tandatangani
kiv
gamis
dilem
gapake
eddy
ketimp
sbnrnya
pemasukan
##yust
laj
##biran
##idzin
##ides
melun
videonya
teme
##jujur
intol
mengem
unic
freel
##jatim
esem
##urd
##amba
menyampah
imag
ancur
materinya
virtual
perkenalkan
##bln
##etri
parawansa
##impahkan
their
##ulih
benarkah
golf
kontraknya
pengger
harapkan
maknanya
147
dideng
healthy
nutup
rezekinya
hell
kata2
##hindarikerumunan
cour
##uper
guyss
##apas
saudari
##hati
hegem
santun
bertuliskan
nont
wangi
perusak
soal2
berskala
156
##alih
##ocoran
##enggu
sorotan
bersyarat
pengajuan
dirujuk
tnipol
berpart
jau
139
085
kilang
dites
pelangi
requ
persib
dynamite
berpulang
##oster
support
indonesiagiveaway
surf
gelisah
##ition
pud
kelakuan
ditunggu
millenial
chain
buronanc
itaewon
blaming
ngas
jumatan
disam
ngawur
menghalang
gasi
oil
berobat
gaskeun
##ikot
gala
bermutu
humble
kivlan
##olehin
selebr
menjenguk
##enjara
diintimidasi
horor
menggaji
kurus
sayyid
insekyurnya
korporasi
peka
##usukan
honestly
dhani
sos
bacanya
##yle
psikolog
dibuk
two
##dayakan
koe
muhyid
camni
##ongo
dibel
##ewe
ketemuan
116
konkret
gajimu
disitu
##oj
dibersihkan
asri
mengurusi
mitr
pbnu
soul
rachman
drive
takkan
bagaimanakah
gabruk
penyempr
til
pkh
warganet
166
##kerja
kpt
hei
terkecuali
bingk
2022
tetiba
parad
sandiaga
barcode
pangdam
hadirin
ngaji
berbakat
nuntut
##enggel
conference
renungan
lumajang
purnama
lagipula
##buruh
sher
persemb
tolonglah
##ipi
poly
tolakomnibuslaw
ringkas
##anangkan
penertiban
nongki
side
jiran
jbjb
kelulusan
packing
c19
jamb
##orot
menghemat
menyakitkan
rp6
membesarkan
dilupakan
##ask
kejelasan
##nasional
taq
balau
humor
sports
##ampasti
##ianati
pho
aktual
mapel
terut
kumhampasti
hek
meluk
nyat
tad
rame2
brian
sejujur
hitung
which
piec
proper
kreasi
purnawirawan
pemalas
buronancabul
##aratakan
wisma
proporsional
dikejar
hea
wudhu
##ondo
suzuki
yuli
pekebun
nawak
menhub
menyoroti
##ogiri
sambut
playlist
##ediain
ambruk
diremukkan
##enaan
wna
##ombol
perbud
yuran
dire
graha
##yarak
database
kendor
lengkapnya
analog
foya
##elisihan
udahlah
subhan
saking
##cs
berdampingan
report
thamrin
biasakan
sewak
##mant
##iting
##ontrak
##mail
pengarah
yuk
bundaran
naras
nunda
exol
kewas
apl
##word
dind
##play
##ruuciptakerja
kmren
masiku
bersabar
menggelontorkan
belia
thdp
bible
mrka
960
##onesia
melaluinya
333
board
berkedok
koruptor
##cu
##oloskan
manufaktur
wujudkan
dbh
##empel
##anyeol
dilib
sabun
penyemprotan
tarakan
##untuksemua
pendapatnya
##bersama
dance
meredam
koreaan
soemarno
##arisasi
tmp
nyesek
12jt
treasure
##patuh
output
sng
satu2nya
##een
##boy
##iler
kaos
##lamasi
##mit
setop
stereotip
pentad
##emba
betul2
berlakunya
jiwanya
aerosol
dikon
transit
naek
sifar
##manen
##stan
bookmark
guy
##untukan
points
##sos
##maf
mukulin
degan
after
bahwasanya
taekook
kapas
imagine
mlh
pemkab
##adiun
again
ape
opsyust
menyesatkan
##2021
usahlah
fauzan
donald
##yung
terangan
ortuku
ilaihi
mempersembahkan
komut
kle
lisa
resour
##utuhan
hikmahnya
##urnya
mengedukasi
##daerah
shopping
sindir
ngebantu
cfr
nakal
kecil2an
##ulidin
##emil
phk
text
konpers
update
konsolidasi
sapardi
sampek
ckckck
disamaratakan
gotong
pungutan
kesemuanya
chanyeol
bajak
jadinya
##ns
##bes
nyen
muhyiddin
##bp
thank
173
sperma
pencabutan
##imalkan
laris
melantik
halangan
bengang
ngo
migran
##sitif
syamsuddin
content
##ingku
##obot
katak
function
kbri
##eheh
produce
##lawancorona
renovasi
##night
devisa
handsanitizer
##awancorona
nation
##akap
pelarian
hiu
podo
oalah
##ngalam
kelom
terimakasih
skull
jaks
angkanya
##perubahanper
express
ketidakm
##abutan
ngalamin
gemuk
terkumpul
sharing
dituding
terintegrasi
menyusuri
anjg
gdri
perbudakan
nawakngalam
##akallah
gaenak
tm
takat
padaku
qunut
##innya
ditany
diand
##edikasikan
amiin
gni
nipu
ngga
pssi
##cks
happy
riana
ganggu
collab
##ulukan
equ
paran
err
##stal
study
##barui
kartel
karung
##etting
##ahhh
mengkh
##anic
##ujat
knpa
manfaatin
tangkap
##ols
bua
biarlah
terlaksana
steak
##uction
kwik
penghinaan
uangnya
##aup
dalih
kaa
##cm
##ipe
##akita
nggk
##erhan
##ils
dramatis
beker
jahili
dod
advokasi
tmpt
polhukam
properly
##rimob
mengidap
##optim
base
sendir
asking
sedar
berinovasi
silaturahmi
##crib
##odec
menyulitkan
jangan2
selaras
##obar
##padaan
lepak
##apua
pelacur
3k
dibelakangnya
interior
##timeng
berlagak
terbar
bersamal
tanahnya
penghujung
menjauhi
elo
##jaw
##ubsidi
sihh
membek
lahh
opsyustisip
senja
psbbjakarta
bareskrim
kedisiplina
jom
beluk
jne
kebos
wktu
handal
memecat
##ingungkan
##eknik
ultra
##imbun
sugih
##undred
nganter
berehat
gairah
angan
antam
didatangi
102
pdb
vibes
kompaun
ngeles
umatnya
wass
penyandang
bareng
##cegahcorona
pala
##iringan
##alukan
##kal
sepihak
menjunjung
berlebih
silver
ponakan
##merdeka
nnt
mengecewakan
##ubes
rambutnya
##ruksi
ricuh
worker
mosque
##lp
gituu
kuliner
opsyustisipoldasulsel
paparan
##impan
berjib
terutamanya
##enggang
ditemukannya
perbinc
amburadul
promote
144
djki
hundred
##itup
berpura
berperangai
babel
ngal
sketsa
saj
realistis
ahh
mangg
dangd
symbols
fashion
##roy
ngitung
melarat
telor
graduates
ikat
satpol
helm
lahiran
rug
sejujurnya
berbuah
menumpuk
klw
ujung2nya
setting
##call
bermasker
gadjah
tajuk
bangkitkan
##emonstrasi
dimudahkan
disebarkan
persatu
baby
##amis
travel
piliha
rose
almira
rempit
ninggal
kesakitan
tercermin
economic
cowok
bareng2
transparansi
berdaulat
taatiprokeshindarikerumunan
dilapor
kebocoran
bisnisnya
tribun
kedinasan
policy
dibay
setor
gabole
cintanya
tower
lame
##ajakin
bokek
gantinya
berkurangnya
kurban
kantornya
menata
rambu
disamakan
tragis
##ulanya
menyayangkan
double
dibully
kecelar
produksinya
balon
pasiennya
kecelaruan
berkenan
sembarangan
gri
rayakan
merantau
musnah
nerapin
camaba
andini
taufan
kencing
sjw
##onser
penginapan
haus
keterlambatan
##kas
indirak
triliunan
zoominar
##pee
subst
##aar
##idupanbaru
##anggi
disuntik
bner
bantulah
antarab
haiii
jibril
##aat
##arif
yut
##yeng
##batal
##pakaimasker
okb
chief
puasanya
mmb
##perin
leluasa
privill
pembuktian
duwe
donat
jualannya
sevel
##efl
berkolaborasi
733
matraman
bebal
##ahannya
fleksibel
request
suster
staying
1k
cost
temen²
hul
zahid
political
pembahasannya
##sto
universities
seremo
xde
yust
kelontong
gasuka
cendana
jelang
hargaiin
sulitnya
menjauhkan
beradaptasi
temen
##alak
kedubes
mahir
ajar
semban
wag
##epsi
mobilnya
lemahnya
cobain
realisasi
pantau
pendemi
yoga
xixixi
tertera
##okkan
##fly
kekosongan
##ombakan
hmmmm
digerakkan
##cek
akm
fall
musical
##orbankan
cashback
hg
kebang
buluk
##hering
toni
ngomel2
assist
thermometer
sesetengah
yee
pojok
energy
selese
##rrrr
setau
bodoamat
pengirim
bengong
strugg
pake
each
menyal
kdr
ijinkan
##erkan
math
##zin
##urung
pemanggilan
likes
adaptasikebiasaanbaru
privillege
ign
jegalsampaibatal
##ilet
##late
##itupulu
bera
insha
portal
##awancarai
tpp
dafta
dihadapan
thre
disaat
scam
hahahah
##edepan
astoge
rantau
##dc
##bl
disalah
joget
hnya
penget
##col
##edihan
##ungkiri
cabai
wonos
klinis
disiksa
boster
care
kendalikan
kapok
ekologi
lingkar
saman
functioning
##eke
##lamat
mengelak
sebutkan
purworejo
##urga
profit
refly
karanganyar
politeknik
##untukrakyat
memaklumkan
getting
##arani
kasta
112
diajarin
##eller
pemasok
harmoni
diagnosis
belinya
sepertiga
##epatah
most
semisal
berser
abdi
mendekatkan
permisi
kentang
##orat
esemka
match
kurs
ngerokok
mwnding
kuasai
block
##arku
kontol
imi
##sif
ngantri
##orbid
kegiatannya
##pet
##earch
yeay
##ally
dengarkanlah
dorang
##ersam
##fli
pusp
anjur
mhn
gambut
kerjo
ninja
heg
##jal
##ando
kerang
disangka
faktanya
nyai
rival
notab
##humas
dukung
thankyo
berurusan
butterfly
melemahkan
local
sumsel
berlomba
##imbar
menyelimuti
mentan
cart
menggalang
paper
blak
##hel
tonton
##oblokan
##oblos
smi
dikata
##etat
kuota
selfie
disisi
masa2
kill
##engsi
liatin
##osial
checkout
bermutasi
teruja
lec
##htiyar
nyungs
nyadar
pasangannya
spesifiknya
keterbukaan
keutamaan
ckp
##rioritas
astra
deretan
rm300
##kwkwk
mao
##riminasi
aidzin
##fitnah
ril
epidemiolog
covidー
##dirumah
korupsinya
##box
##eras
##imul
kedepan
odading
mengiringi
urusannya
memadu
penunjang
linjur
kegoblokan
manfaatnya
kementan
knapa
hadiahnya
tatakeh
melej
disentil
pawai
##pers
wayv
bereks
covidー19
perkh
resahkan
joy
ranc
keadaannya
kepengen
some
##atio
kelel
ard
kondom
bernegara
dijalani
minjem
##epi
mantra
aturannya
seenak
##jaka
ilust
ambang
badge
jasm
odl
png
patient
keringat
kanj
rasis
##ehentikan
hidrop
##okw
fid
didonasikan
kilat
common
humaspol
jikalau
kearah
janc
meloloskan
##bank
menghadang
yuuk
##aaaaaa
repeat
pastilah
short
outfitnya
sku
lanc
emang
prosesnya
##idukung
terciptanya
gigih
tatakehidupanbaru
haris
memperbesar
##ilit
penul
##rikan
stone
gadang
jagat
huft
##iharaan
kebosanan
tis
temui
##ormal
⠀⠀
terseret
pdtt
cucunya
seolah2
komorbid
bajawa
movie
executive
kuku
##elatan
ink
terduga
perkhid
elektrik
kontradiksi
##ahasi
henfon
lga
sedekah
penyangga
##orea
##jajah
buset
plasma
##atasin
kusadari
hype
coffee
sinergitas
brom
##━━━━━━
##oleksi
alerta
peminat
berbohong
walopun
merana
##ooooo
berantakan
menargetkan
berasa
penunjukan
merger
buff
direktor
##uahkan
sukseskan
pertanyaannya
attitude
txt
rocket
lau
mapan
najib
##erna
slurpee
##adona
jcovid
terlilit
terpantau
liburku
pusingin
##emaah
sia2
cafe
jodoh
##ejahterakan
##amo
memaafkan
bergengsi
terbaiknya
nara
menantu
##yakan
kebebalan
punk
loh
dewe
yutub
ubi
really
mengecek
brou
serd
nerd
conf
syahid
revolving
membehentikan
dirasa
berjibaku
universe
##onakan
taati
##bts
gratisin
dihapuskan
qatar
##pam
nyungsep
mate
tumben
##square
ve
##sar
1625
##ological
numb
indahnya
change
##rioritaskan
##awatiran
ngebayangin
terpaling
junj
perkuli
terpenti
1500
arek
hatiku
hidroponik
##yukur
foursquare
beku
##apangan
pig
##ilat
perhatiannya
rijik
##parah
##abis
pengaman
priuk
kuc
volvo
##lebih
1hari
number
berdemonstrasi
tantang
notabene
##zone
##ayaknya
konglom
277
paralel
building
megaphone
entry
##friend
merambah
propos
toilet
fitrah
sist
lg
voting
dilibatkan
siregar
balikin
daster
4nies
##atasipandemi
##arantinaan
launc
##integ
ajarin
members
membingungkan
##lee
kookm
fro
berlangsungnya
inovatif
kapoldasulsel
hhh
sambung
uts
##ewatkan
cerai
kath
##inn
permudah
kakk
##uliakan
igg
takpe
ey
penugasan
dibayarkan
poinnya
rejekinya
kampret
##ahabat
laporkan
menyalakan
ngand
transform
boring
##ift
pengerjaan
alloh
hent
menyemb
bold
##etap
##perempuan
akunku
gathering
skep
iye
beraktivitas
mencuat
positiv
site
##gawa
##provokasi
tulungagung
lih
tertahan
pencet
pede
partner
##idmat
rolep
keyak
##ective
knew
lanjutin
pembangkang
kehebatan
kapital
swe
rank
patuhiprotokolcovid19
memutus
check
dubes
dst
women
seadanya
##apet
mardi
kekarantinaan
ngarep
##ombolan
narasi
screening
##zation
organization
960gl
kangkung
##edepankan
major
brut
ohh
kbbi
##rc
##count
merendahkan
kariadi
##arget
eduk
##inggan
diusahakan
kelinci
paslon
fotografer
##hake
##ㅤㅤㅤㅤ
gb
cher
seset
##undi
##ekin
mukena
ulangan
classes
3000
keluarin
rotan
tril
worry
##ahahahah
ketel
anger
bujank
fiz
nba
millions
pelarangan
keah
##jabar
cupang
##elofa
##gor
##bagi
perokok
pepatah
ortunya
handshake
prnh
##ekeh
petakan
oz
suc
airlangga
dicegah
books
pramono
##uvid
meneng
##idan
##epit
printilan
think
pulsa
koreksi
##itoring
tomat
dibeliin
kesemua
merangkap
ninggalin
##dukung
##emuanya
efektivitas
##ista
pengus
tdk
##can
season
##kamah
cod
pemangku
mencamp
nganggep
neelofa
getah
##edom
parip
##ancy
takbiran
bermental
idham
yng
merugi
jepangan
batalkanomnibuslaw
bangkrut
##itra
##cor
berkh
berkoordinasi
player
##nus
seram
##ebuah
lemari
##ogja
ampuh
cong
pedes
41k
use
membengk
malaria
melak
kocak
tuuu
karirnya
parisan
subscrib
guan
##ukuli
rena
##osikan
##info
kakakku
rp168
terjd
##ejen
mksd
##ores
##odecides
hura
##banyak
ekonominya
lans
nyalain
seedling
billy
ningkat
peb
merintis
seblak
imran
gunanya
semo
kelamaan
##perubahanperilaku
padamu
##1r
telfon
chip
elak
212
fadil
kd
akumulasi
kuatnya
egypt
bersinergi
diretweet
##uuh
##usias
bankn
##enah
ott
nazar
##awl
ngerjainnya
metodologi
graduan
see
lihatlah
##mick
serdadu
many
hadimul
irjen
president
tegur
perusahaannya
5g
diploma
bawaan
twi
ips
##ijik
wni
isine
yustisi
berbunga
mou
tampan
mendaki
keistimewa
resah
sirk
monitoring
selim
indie
siapa2
didat
confused
dikorupsi
pemben
bersandar
based
ketidakpastian
gali
tertuang
manuver
perkuliahan
bia
##lung
banknote
diandalkan
rawat
masnya
oppa
selayaknya
andai
hiatus
diup
adek2
basri
minimnya
buntut
##untukk
berjam
exc
alaikum
berbuka
malesan
berisiko
hilirisasi
oot
##apu
nyolong
##ilir
stopmudik
##uput
berjangka
jauh2
rump
##arifan
legis
surfers
istiq
hrsnya
##lit
jwb
##lil
djal
rampok
menkeu
plot
3duvid
next
##ekalo
nasehat
dibela
yekalo
dokternya
diis
print
elektabilitas
ngelanggar
soale
napitupulu
tolakruuciptakerja
coro
gelora
##uatiri
kalbar
infob
perpisahan
##ampingkan
sensasi
##atul
ceria
slow
nderr
##ved
hadimuljono
scan
##itnya
##omoter
sepinggan
omg
bicar
dikhuatiri
nyediain
pantun
socmed
bertumbuh
##umumin
ea
kekeluarga
ningk
dimasa
##ᅡᆫ
sekej
marh
telponan
ping
##woo
wakaf
resort
niatnya
temenin
bilangin
congrat
rembang
mertua
seber
terpusat
majal
##²nya
pikirin
wain
perbelanja
##market
registrasi
gimmick
gub
piknik
psbbbbbbbbbb
bagiku
ujan
kaleng
##idam
##emok
android
original
##uin
compare
talkshow
difokuskan
1hari1r
1hari1ringgit
##ken
gratisnya
profile
sdng
##tainer
perketat
rocky
fight
suda
tipang
##opol
tercemar
menghindar
kent
sll
dikec
##folback
maling
jenuh
priok
rm55
terusan
gaa
jkm
running
##ukuh
dipikirkan
sblmnya
butuhlah
wanna
dijulidin
wafatnya
akreditasi
allow
berlak
crisisnya
kesehatanmu
cucitangan
salahnya
rm5500
luaran
coming
ngasal
mempelai
diganggu
menjelma
gk
apanya
jokes
kearifan
pedas
kenceng
##tukan
tobat
penghalang
promosiin
mengga
##indra
mesra
##asu
##ilnya
value
##gital
programfolback
klarifikasi
konseling
diawasi
##onah
saranin
sembako
dut
gawat
mung
s1
lond
message
wing
##bie
##ing2
halo
jutanya
cemburu
##bol
baksi
berdamai
sars
##ooling
hash
narasumber
bungkus
ft
##mission
##apapun
literally
kedah
##ombak
roleplay
blh
ucapkan
blokir
luh
frozen
yall
kurangkan
nurh
gaper
kmbli
##investasi
lawanmaf
waralaba
##ayain
kluarga
perpust
yha
##residen
##ilian
##roel
##ihar
nugas
mainnya
ngundang
kasut
madr
duduknya
rif
nasir
investi
pengetatan
sebagiannya
ngobrolin
##org
blora
berteman
menurunnya
bawas
pitching
##ejut
wonosobo
dlm
##vy
membuatmu
korsel
malapetaka
rest
##etin
ngajakin
##incangkan
sdr
bhakti
desainer
konoha
abud
tangkapan
decidu
deciduous
meninggalnya
herm
##ehh
berlibur
##embakan
bgm
merealisasikan
mengusahakan
berikhtiar
##anggaan
jagain
kapal2
##ines
##ampek
##bener
membeb
##uruskan
called
onlin
ziarah
bltdd
ei
bic
rm112
budiman
ngetik
satgas
globe
menyusui
hunger
kepimpinan
ditjen
dididik
klo
ipb
kony
lebi
aborsi
pentadbiran
warnanya
##aksinya
##arts
jngn
fnb
matlamat
seriusan
penularan
diamankan
##agat
terlatih
yaelah
opening
kayany
ngapa2in
##engkal
laen
peace
nurunin
memperkaya
kecil2
semuaa
wl
account
##dem
barakallah
states
menindaklanjuti
cookies
diburu
3t
ngandelin
##maju
gercep
alis
daring
adala
persija
skarang
rasain
##atatkan
##unaan
pembiaran
menggarap
masukkan
sarapan
phot
##tima
anggep
##vity
femin
jempol
poldas
rampung
kema
ringkasan
sert
##luaskan
##ejahtera
drun
ketutup
##aaah
peliharaan
satria
##fish
handphone
##inu
##ajardarirumah
##ksk
dpt
cerdik
gaj
##sing
rg
konseku
blt
struggle
ngeshare
tjahjo
##jaga
yap
##wor
suplemen
waspadai
tokope
diktimeng
laper
edc
renc
gabungin
nyebut
urgensi
gosah
sugi
jaraknya
cipto
##taati
kemenhub
cying
berkesempatan
##ray
pkn
sindikat
diga
##less
bajingan
##akk
##urukan
##ayap
vokasi
rebu
rejim
hatching
menggembirakan
diktimengajardarirumah
##atin
##elawan
meresmikan
dongg
bubur
berguguran
poto
pertambahan
qurban
kopassus
fadj
##ilin
##ejas
cus
menumb
ternilai
nyatanya
##ents
##iber
nim
kedengeran
gast
terperangkap
##alo
##enggut
lngs
wahyudi
since
siak
kreativ
marilah
sukoharjo
pengawalan
gosip
##abisi
##verse
munaf
membelah
beranda
wholes
sahamnya
jengk
mantu
keren
dikem
berkisah
medical
sirkulasi
faker
knowing
##oles
gerai
cancel
##ulihkan
##acovid
beres
##time
sekar
elah
ojek
##ruh
launching
psti
nntn
perbaiki
maafan
lejen
##pack
unesa
bohong
ngest
junjungan
gadget
menggalakkan
tbh
rangking
mudanya
##donesia
##tnipolri
pack
oku
kelal
desk
gelang
jitu
koper
sedulur
mentang2
bem
##anganin
##adis
donasikan
ppdb
kmn
yahh
mukidi
twist
##okal
genting
##eun
them
##esehatan
restruktur
belagu
allowed
mip
111
seller
##verage
sangatlah
diajakin
fadjroel
hedon
penelitiannya
aparatur
pagu
##eas
percepat
loro
pelindo
dimin
penyesalan
vidio
veve
kumpulin
sekol
##diam
50rb
annoy
mengevakuasi
sekuat
diktid
sedan
mana2
wakt
instas
pemimpinnya
wholesale
comic
lhoo
pengungk
memperhitungkan
##olisikan
ancol
tanyakan
ngl
positifnya
ketidakmampuan
##░░
##hara
##angu
spot
envir
##acot
##plus
penyerapan
ngalah
nia
##arinda
##ehatan
menjumpai
##entaskan
baratnya
ciptakerja
cikampek
veveonah
pelab
mancing
wawawa
cobaan
##ood
memasarkan
marat
agency
bey
menting
bangke
sujud
progr
##dip
digitalisasi
package
socialdist
##urunkan
sumenep
360
amarah
kestabilan
diterjang
buzzerrp
lawak
maksiat
##bbon
terjejas
menyepakati
cintai
##zine
filter
aqil
angkut
phd
bappenas
dii
##untikan
crew
memacu
##ifa
pemula
diawal
shock
##olaborasi
##utaedukasi
##pula
pelaporan
andil
##unaikan
bd
nunjukin
belaja
sekola
niatan
direstui
berdonasi
invest
nasibnya
##ruit
gg
##ipar
beating
etis
pikirkan
##owi
tgh
keseharian
nek
ditonton
memberatkan
sahih
timothy
##usikan
derita
##akes
##arkop
terdepan
stud
keuw
##arapan
yakali
##uns
imbau
miski
diktidutaedukasi
gdrive
halte
puja
wallahu
calendar
cristiano
konkr
berlimpah
raky
gratiskan
##dren
hayat
soleh
##imis
sklh
sampo
##provok
bansosnya
kenanga
behind
##baswedan
annoying
##ulung
##udan
sedap
grob
teknisi
cape
fiktif
lacak
##juran
tiru
##antri
##𝐓𝐁
berpengh
join
mslh
kegad
bersed
##ept
ngamau
kolusi
kepresiden
kick
##anger
##ersama
dibuatnya
650
tuna
##iiin
mendistribusikan
dires
dirut
tega
terpanjang
berjalannya
mampir
##tura
𝐔𝐓𝐁
salemba
𝐔𝐓𝐁𝐊
dm
hh
tlh
uny
##rier
##gggg
dirusak
bull
perangi
##74
mukanya
berolah
##ipew
monocle
hammer
##ady
keuwuan
kere
menyimak
isolasi
party
##ecehkan
numbalin
##ped
desc
indef
maskermu
diterbangkan
batasi
stays
mentingin
kejar
taatprokes
mw
##erence
240
production
aus
##elix
##eve
500pcs
##front
##eful
kie
trisakti
acute
##afasan
durasi
diperingati
janj
quar
persiapkan
satpam
inikah
jipyeong
konvoi
engineering
##ikonya
hentam
bgini
gramedia
kronis
restu
garden
mahasiswi
julid
birokrat
##inary
##uninya
ngecancel
##aruf
months
##kum
spp
lolosptn
memangnya
##niv
tularkan
acah
menentu
##andungnya
apr
baiklah
vvip
staff
warkop
##iq
dimus
gantian
##iners
##esang
haru
udeh
miliaran
##entrum
kepemimpinannya
doni
inisiator
haili
manteman
josh
tea
yai
bertambahnya
kelu
ummi
krusial
ngono
buron
adap
jualan
𝟐𝟎
gerung
##onde
percuma
simpel
jeblok
hate
##turer
kegaduhan
##anta
penyuluhan
dibolehin
sekelas
ngechat
buktiin
bersih2
bullying
keberl
singkatnya
mendoakan
##umba
alib
menyambung
respond
sukarelawan
culture
children
hog
democr
judge
rekrut
ningkatin
financial
##▓▓
ngef
bagikan
pengemasan
##live
gent
thx
suram
gorengan
jangk
berpendidikan
mix
eceran
yup
ngibul
dikuat
##ulut
fint
ank
seba
drooling
konglomerat
digabung
adh
kebodohan
pernafasan
denny
uyghur
penagih
sepedaan
pandu
jisung
brutal
hb
koyo
orasi
ald
kehulu
bread
masi
##hak
nalar
##ekolah
##ewatan
lex
##liner
zuh
##met
##ibarkan
perpajakan
mutakhir
##tarto
sesederhana
##illing
##ofol
opinion
melu
haired
masyaallah
ruma
apes
oke
lobste
menyakiti
membuatkan
kondangan
student
gastro
merauke
gaees
goy
seat
panic
sembunyi
vamp
tengok
banyakin
influenza
foll
purse
##ird
##gger
entrepreneur
sultra
lepek
ls
##gub
pengingat
tangkis
mengomentari
sead
##eting
kehilir
##atiga
apasih
squ
tumpang
##etuk
##luck
gih
akum
melacak
mudahkan
##yukuri
flo
##oor
takjil
dikalangan
token
kebeli
karakter2
stray
rojiun
sebah
##whe
disebar
manipulasi
tuku
wiji
berantas
##eritain
koma
jastip
nyoman
nul
##egaran
portofol
dipuji
kerasnya
gaeyss
kunt
thru
kelewatan
diphk
beruntun
keak
buntu
trawl
##ematan
adm
dulur
diikut
poldasulsel
burhanuddin
sangka
##eron
fahim
##unuhan
lecturer
berpesan
stre
apak
ngob
bou
tikar
mimbar
akunya
sono
koas
terkaya
𝟐𝟎𝟐
polresk
hidayah
hadirnya
marhaban
rider
surviv
##eraan
penjilat
kuman
bayinya
pemikirannya
xixixixi
kosmetik
intoleran
##py
𝟐𝟎𝟐𝟎
haluan
ketapang
repl
gasih
freelance
berkomitmen
akt
ketenagakerjaan
hajar
hayuk
boyolali
guruku
tambahin
dikom
##000
jkt
core
fuad
##iofish
simbiofish
pempek
lipi
##𝐓𝐀
amit
boncos
sleeping
##won
##unyikan
##enge
kgn
##ancer
digondol
jersey
mengurangkan
##ilkad
va
##erick
kalok
akhiri
penyehatan
explain
ketahuan
bajet
merebak
kelancaran
nomton
##intest
##andeng
ustaz
mbaknya
alien
avi
gob
popularita
gastrointest
gastrointestinal
provok
##ubungkan
##orob
lantang
gedean
##ianjur
england
tipu
sllu
uniknya
wonogiri
yl
manggil
##ebaknya
diputusin
hamka
pernyataannya
seokjin
ngegas
aniesbaswedan
diktidutaedukasiperubahanperilaku
idm
makeup
magh
lamban
knowled
eun
fut
##oral
sumbangkan
bidan
##rab
diseg
ronald
apaa
ingger
berisik
dipikirin
mendapatkannya
purseiners
merapat
mentalnya
##zet
bltddberkah
ibu2
dipaksakan
punca
##fess
cimahi
##ongsong
hidupmu
waj
indone
esdm
playsto
##ucal
bengek
sehat2
gratisan
##iii
rapuh
qr
##eteran
tl
dikerjain
pergub
sales
tumpuan
kunjungi
##ingkem
orangtu
pembajakan
syurga
wqw
thukul
diperh
klian
tebak
pejam
##phk
locked
nanganin
070
wainna
tenan
bergej
someone
maskeran
kriminalisasi
pung
diupayakan
##rupiah
uns
##isr
court
degd
hyungg
##utuk
selekeh
lapang
##adaptasikebiasaanbaru
ingetin
instastory
taik
bere
jauhi
luasan
##ener
ayolah
dihina
tuyul
bawaannya
basuh
berjodoh
disekolah
provokatif
daripad
kuliahan
dikul
menanggulangi
follback
terserahindonesia
##rawi
berlian
menggeser
##frontliner
irwan
jamet
kulitnya
span
sragen
drop
bergambar
rate
sejenisnya
covid19frontliner
edan
wahh
undur
import
##empet
biarpun
nyerang
##oduktif
minus
keganggu
perangai
wfo
doyo
edition
##hil
##wam
kemari
breng
lk
ananda
##𝒂𝒏
tarhib
iyalah
##rumah
asih
##vaksin
nikmatin
baz
dedi
pwt
hakiki
rm50
ulangi
##enuhan
uh
segede
anyar
##ipan
terlampau
professor
nyali
besar2an
##lagi
bajo
##taf
stuck
ktmb
cie
rsd
ditanyakan
##impung
beverage
##elter
airways
shaf
perna
230
argo
fintech
sg
diob
hayo
##pro
multip
##aminasi
pemutusan
narik
branded
ngerayain
##pop
##imir
kaloran
346
seen
##struk
tgk
never
pub
menyet
bisu
mingkem
bapak2
##obel
dasco
bs
tos
eucal
cang
salman
sunyi
hartarto
positip
kekisr
dikabulkan
##ongkrak
rumahkan
##mantyo
kmaren
kekisruhan
charger
##enjangan
berpangkat
##ibata
sampling
pengkhianatan
##udung
ngecek
##bilitas
actual
kesehatannya
letter
##pto
bengawan
bwt
jok
pain
gara²
bening
tagihan
limited
##armanto
tersentuh
##istira
anjuran
illegal
##hub
##olid
enek
##limited
dokter2
agraria
kerumunan
papah
boi
benerin
environment
##polda
550
##promoter
##rm
juliari
bahari
saudara2
berlapis
##okin
proyeksi
perlis
tanyain
##pangan
gbs
cant
chad
##orse
##yptus
logi
otg2
sigit
hmp
nurmantyo
dibelain
##aaat
digra
##oal
ara
adal
semprot
stopmudikcegahcovid19
##abrak
kesepak
##opolri
cile
##ribut
polos
##enyap
korbannya
dicap
mengkonfirmasi
susun
ngetwit
dispatch
kartas
halooo
##ersey
suntikan
##𝐀𝐋
kasi
##awards
ranti
##each
pencairan
##ekraf
sehari2
nm
##elir
mayday
##enteen
suparmanto
quotes
otoriter
##withd
ask
nagih
place
haduh
##ctv
umurnya
pipi
prem
##ajaan
urang
##urutkan
kanjeng
aneh2
kerukunan
suar
diband
even
freedom
corporate
memel
kahwin
berdebat
bkipm
1kg
industrial
hindari
totalnya
radiologi
##bell
penat
teros
parade
pensiunan
paketan
simpen
##imana
barang2
keringet
pret
ambisverse
kpr
knowledge
perindust
bikinan
pengr
ilmunya
speech
tnp
2m
patokan
nembak
bertiga
##andan
##osot
rapatkan
tewasnya
antib
ponpes
ruko
mengkampanyekan
puan
boro2
eu
wajan
useful
lebaranwith
gandeng
##ikmisi
perutnya
gra
laksana
ujiannya
uin
##aminan
oblig
##antian
faces
nego
lus
kukira
ketangkep
perti
penampakan
wamen
kumolo
##star
perasaannya
eisner
defantri
mematahkan
republika
##abuh
parnoan
mengaw
kuiz
keramaian
mesen
sekejap
hens
kurnia
iqbal
basic
misalkan
##efisi
##atuuciptakerja
hapuscovid19
ngaco
bisa2
perpres
peruntukan
146
berbe
praset
finger
##solusi
##egat
lontong
smakin
hpnya
katalog
beraninya
akang
##98
##mul
sampingan
##3mb
covid19indonesia
tirta
neraca
dede
##bren
hig
##elasi
prepar
menyisir
dipindah
hendro
version
selipar
tarung
mie
exist
lebaranwithbren
##odok
lebaranwithbrenda
tho
terbebas
hah
krja
eucalyptus
sependapat
##ㅠㅠ
jerry
naw
menamatkan
akutu
311
hii
sktr
meras
senangnya
##kut
##cess
mendonasikan
nemuin
bobrok
nii
gx
saintis
yass
majalengka
export
aminn
perhari
##ateri
disengaja
ngobrol
genose
idealisme
sandera
worried
prayitno
doank
##ekomunikasi
lion
flower
##icy
optimisnewnormal
##aber
dikandungnya
pacarnya
bkpm
cub
terap
pemakan
melek
disp
ekuador
here
logikanya
##grad
sembakopolri
##dis
ngemol
##ihh
also
seruput
dina
ultr
jason
plin
kelalaian
baks
iyo
gaperlu
##bahaya
terbitkan
seo
##uras
bancakan
helmet
##alongan
disease
sangk
ngoc
teguran
magetan
snowman
komplotan
roleplayer
kpkt
##ving
g4
bahasan
mutus
mengandungi
##isihkan
khawatirnya
piss
##okowi
psb
teume
yakan
##fta
suruh
kalung
ngepr
monma
mendap
dpc
bumnuntukindonesia
sange
dikait
##ubuhkan
terburu
##hirt
keluarkan
draft
digarap
pkl
##pasar
##akwah
bergi
ambulance
persalinan
polripromoter
bpjskesehatan
semangattt
bntr
ditegakkan
mump
##irit
glow
sialan
mimpimu
surau
driver
dalmi
felix
suspek
3a
diset
##empur
menginter
bersihkan
bili
wc
temanya
muba
bahri
##masalahkan
##amain
bawaslu
##pajak
##angguh
##hield
taatprokessaat
5a
pkpp
writing
butuhkan
diseluruh
pie
##jim
##mun
dihilang
##41
dilanjut
kongk
##krongan
kelestarian
siasat
##obia
kejang
kewalahan
stakehold
cring
desp
ngestan
##dki
ditabung
terucap
##illain
esensial
tunjukkan
istiqomah
diulang
known
wev
##ujuan
baliho
ita
berhi
beau
pecatan
ngambek
taatprokessaatpilkada
spread
yet
aura
##mubarak
lonelin
sobatrupiah
perintahkan
serpong
mengimpor
sungkem
olahan
loneliness
##2kan
perubatan
vom
wani
mengins
onl
imunisasi
browser
canc
sungk
avail
##erto
kemayoran
dicatut
teteh
omong
unlimited
##endak
goodluck
onok
baga
vampire
bangsanya
lalai
##bak
langganan
wassalam
memposting
##orobun
3c
##prakerja
riono
##anjuk
dirg
neneknya
masalahin
873
grobogan
pw
##foll
slh
kontrakan
passive
pagi2
pinterest
find
pegang
mengincar
kard
##impen
deep
letjen
keakuratan
tersayang
##adiri
kompak
mangat
##ibli
pian
permenkes
##3mbersam
terjamin
##mental
supp
refund
weverse
ebook
terbaring
##dil
sabi
##angon
##tific
kuant
upper
tengah2
bungkam
##sit
##risis
aaa
bahagi
polriadaptasikebiasaanbaru
ngesahin
financially
yhh
mantul
very
cravity
nyont
burukkan
private
milad
##bag
denial
berist
tebel
gangerti
faceshield
sita
##erintah
vomiting
##iban
habisan
nepotisme
pengrajin
want
##ebu
##cal
##asem
tanggap
walhi
trnyata
##99
pantasan
tokopediax
been
aidil
mec
akus
tau2
brarti
holding
skripsi
500k
monmaap
##ulatif
melulu
t3
##sour
berkeliaran
samsul
salon
berkecimpung
tertindas
bokep
dark
##umbar
erickout
##glove
dilemma
##usuran
##rotv
##iris
##firm
ngotot
kecik
bertar
hodoh
didunia
menghentam
pencat
bagiin
tuu
sholawat
usir
menghalau
ame
hidupku
hobby
nganjuk
merel
setaun
##oreaan
seksama
persid
inspeksi
byr
##atimur
siapkan
subtes
inch
jurnalisme
enakan
hinaan
approv
3d
panggil
##ipewey
dibohongi
pacaran
##akatau
##mg
##isin
lauk
sushi
ps5
johnny
retwit
dpet
counter
rekan2
##alkes
muja
boys
##kusumo
pissagn
mantab
##arakyat
bonbin
laki2
balan
saku
seventeen
##cation
##3mbersamapolri
kyak
lawatan
##oed
##imin
ngoceh
perniaga
##kt48
##tibkan
kita2
kerinduan
##hone
##ueue
reuni
topglove
subscribe
kasat
sepenuh
auto
pantang
gita
##bur
##ix
asupan
stelah
template
lembur
ngurah
psbbbbbbbbbbb
pilihannya
bukanya
membenahi
##ished
##lud
pinjem
sugar
bukal
realita
nyebelin
##jateng
bahas
kesamp
bethel
faidzin
dialokasikan
spt
pelawak
krakatau
wasiat
##kel
ributnya
memaksimalkan
membanggakan
ami
##imbangkan
berilah
##ontol
mosok
margin
terdesak
gerombolan
sekolahan
pempus
##blade
##withdcode
##edih
menyalah
##jajahan
siasatan
verbal
nyewa
porn
disn
puyeng
kemendagri
bj
tana
##ause
##eba
printer
video2
##er2
sesua
penangguhan
ihsg
telkomsel
##desa
kartunya
sekda
adekku
##risi
pendafta
ndek
beyblade
isl
krena
suka2
appar
trophy
syukurlah
goodbener
mualaf
gbl
fok
serahkan
turu
khus
kentut
kasusnya
diagram
menggunak
eyang
periksa
tunggang
mela
silaturrahim
biskut
deddy
berterusan
hey
sesering
massage
kite
sembang
##asmi
diasingkan
bahka
dibek
chef
bedain
terserah
kualitasnya
teta
cid
##ateguh
syukuri
upsr
printable
kitateguh
unj
personally
##wheeling
##bt
menyiksa
menapak
cengkareng
kredibilitas
investorpedul
##ingnya
spesimen
founder
##oel
##kk
##80
##etujuan
##door
delete
cartwheeling
bnr2
p2
##edaran
terkabul
distop
kekoreaan
bismillahirah
memorable
##𝑬𝑲
##nkri
gmana
gadap
ribbon
apik
simbolis
banyakan
voice
gowes
crush
##pt
##asib
##idupan
trusted
batur
twice
jadian
vent
need
##odecides2020
anyway
komen
lbih
rupi
menegur
bgtu
##antui
diberik
dibungkus
mny
##alk
tongkrongan
kebawah
starter
mencintaimu
##key
deketin
##adana
nggo
wakapolri
membengkak
gt
##ormatika
sebelom
habiskan
kementrian
judg
menjerit
yel
mnet
yukkk
##rovert
##uality
infobdg
supervillain
##gat
pengant
sampe
##perate
##isasikan
lemot
perbulan
instruktur
##kitam
bukalapak
bbr
##ek2
20t
gaw
daftarkan
fake
nduga
rss
kadang2
berkem
##eliat
gesture
##ikutiaturan
kesembuhan
akmal
##iwa
minwon
sembakopolripeduli
dikontrol
nempel
bobby
janjinya
##pei
kepal
pancakes
rengg
ess
epid
gaul
meleg
mergo
smng
twiter
process
semu
bersamalawancorona
pembenaran
rahsia
betmen
selebritis
speaking
pemik
goks
yuu
keranjang
mengenaskan
koar2
tagih
nantikan
cabaran
memperbolehkan
treot
apk
tenggorokan
shen
berpolitik
lie
##actus
fantastis
##www
positivity
pilwak
confetti
lawas
jara
dibiayai
woodz
toefl
obatnya
hina
station
pengimbas
petasan
cactus
mill
cook
grammy
##pendidikan
ahy
mencabar
kece
shop
kurma
taruh
##inin
sambel
bnget
mangunkusumo
##side
ngurangin
memotivasi
##paid
##vest
dest
pilwakot
digaungkan
ngen
ayoikutiaturan
kamib
bodetabek
rudet
##ukiman
pemerin
##abeka
cmco
nuduh
##rung
magic
##tng
keycap
jenguk
bgn
mmp
akui
army
##umaha
memberdayakan
famous
shot
ppn
##ambyar
osh
##aice
##llll
##ikhilafah
sayyidina
merangkul
khidmat
dapt
metu
meles
puter
##burgh
##grosir
ketul
##odiak
##usuh
450va
kesalahannya
dirib
##dit
tesnya
silap
##𝕟𝕘
mentok
mengabarkan
makar
menindas
0812
reposted
jakgrosir
digigit
ieu
dirubuhkan
degdegan
menyalahi
pakk
skolah
##bermasker
##70
incheon
perjuang
umm
penularannya
chains
##mates
widya
amazon
mengup
atur
diungkap
ngakunya
stream
fire
jumatberkah
resepsi
laz
mcnya
##percayajokowi
berang
300k
gengs
maki
kedua2
banyak2
ibh
imbauan
##eso
menginfeksi
small
memanjat
##untaskan
delivery
yorobun
nominal
diantar
autom
reportt
eman
kedulatan
penyebar
gunadi
jidat
didesak
kesediaan
wamil
interest
urip
##𝕒𝕝
pssb
dijerat
nyawanya
percintaan
bgttt
kawalan
kuantitatif
gembel
##angkas
berkorban
tersinggung
##poldaaceh
detective
ngulang
ati
trun
lift
##look
zodiak
crita
##lumi
##eless
kepulangan
indosi
##buster
iseng
dikti
champ
##cker
##dep
##udzon
penunda
tpa
##mmm
into
menguk
dua2nya
rabb
merampok
opung
cf
##yel
##boong
influen
pwtc
coo
##pin
soalny
##ones
masing²
sayaa
drilling
digari
jababeka
stimulus
penelusuran
ngurusi
surati
##𝕒𝕟𝕘
dihabiskan
sabang
valid
memperkecil
screen
##obe
sedidaknya
dicuri
##read
menyapa
dijad
ditransfer
tontonan
selimut
konsumennya
buronan
handle
testi
##wabup
ombudsmanapresiasipolri
##jawatimur
𝐒𝐎
dompet
kegab
pilwabup
ditegur
trus
##58
blibli
bapaknya
##ibutan
konkrit
dibales
bocil
##hopee
##ibus
##oseok
indosiar
##vestasi
memil
pekerjanya
numerik
showing
##keren
##opat
yeah
dilanggar
secure
opp
patria
biasa2
kitanya
media2
menggun
pramugari
##eyond
sentil
distribusikan
milky
lewati
hunian
##ough
##new
hadirkan
##rimp
giv
catet
##antun
diceritain
negeriku
arie
hebatnya
bail
ciptakan
jem
##sem
ilusi
saa
cuku
berpergian
##lebihaman
meneh
zalim
pengalman
##otsantuy
##𝕝𝕒
melampau
##ograp
jakartans
hmpir
meneri
kepemil
rp10
through
staysafe
##ucap
pink
tegar
gaber
kumaha
##angguran
bersyukurlah
##oge
pesangon
pencatatan
menginstruk
hs
dikenalin
mujair
ppt
misikin
beradab
hepi
pondasi
kerabatnya
upn
dibeberapa
situa
palla
pinggan
9000
pte
sprt
merem
sumbang
selangit
##uun
alah
##jogja
merenggut
bawa2
lakinya
woii
jobse
jw
deals
dinginnya
looking
##mpa
materi2
checkpoint
menghantar
aidin
boom
suspect
mhs
##imban
prac
minimalisir
wn
##ingya
youngk
##awards2020
pict
kecer
ceng
pind
juanda
cma
akuntan
bintan
ihi
menengok
sampoerna
rombak
krit
##hing
aseng
terlupakan
##empar
##itual
bmw
kantoran
ricis
##oblok
rp3
njing
dimasukin
##hot100
dug
sles
##impulkan
menter
anniv
nyindir
mengulas
##ontang
gigit
muhad
tenun
jaket
fahri
gaiss
kesusahan
rohingya
##epri
dokum
split
galaxy
pps
hijab
##pahaman
prt
jua
sepenggal
dibilangin
bangunin
sebarin
daripadanya
indomaret
ketuk
dropship
lbh
mencatatkan
viralkan
sekelebat
salatiga
hsw
gadapet
sendal
657
bcs
rasan
menopang
berbulan
musimnya
akuisisi
hoaxbuster
years
perfileman
tng
jaka
##itungkan
##bareng
ngewe
bijih
nang
ngan
##auang
inimah
urus
kedunguan
loss
silih
sna
dengarlah
hobinya
bersungguh
berlarut
muhadjir
##anak
scuba
##0k
dilema
soroti
berbahayanya
##esin
buyung
##aaaaaaaaaaaa
thrift
raji
##unfaedah
taher
1442
##ists
##pora
cash
memory
##ukau
geram
##parekraf
obl
berger
jkt48
kemenperin
warg
ngelamar
pencinta
calo
sambutramadhan
##vv
##╭╮
zulkifli
ake
##wick
try
konjungsi
sot
bincang
alay
meresahkan
membazir
##90
##abelajar
lainya
sulut
technolog
faq
segit
##irahim
genjot
ngalir
dehh
jangankan
classmates
maapin
hibahin
nular
jh
##abak
sudahkah
matiin
berhijab
pejabat2
##rips
menyeru
xia
dikeb
utbknya
frustasi
wibawanya
beresin
lamaran
trigger
kelua
setel
kontainer
ngerep
faskes
jdnya
terhibur
vektor
bertani
##anner
djojoh
shift
150k
##run
setir
##ukupan
titiek
##inx
kitateguhkitam
pacitan
##dat
##apiboong
aulia
ranjang
patimban
skrang
clas
keuntungannya
chaerul
pakaimaskerlebihaman
karyawannya
sambutramadhankita
kgk
##anas
pungut
mobilitas
puak
kobam
##pah
basmi
##obak
##tte
kisahnya
threadku
idamkan
crescent
azi
tetapdisiplin
##embuskan
berbisnis
store
daddy
##aaan
##adikusumo
kdm
dibatasin
membua
doyoung
nyasar
tnipolr
tohir
ngelapak
despite
nyontek
##35
merund
sepeng
away
supir
sehun
kekac
terparah
kspi
kekin
perny
bong
disiplinterapkan3m
##ilo
melamar
berkait
jogo
mangkok
djojohadikusumo
tercepat
sunat
diekspor
ehe
baya
tetapdisiplinprokes
kemew
##padap
##amuda
dipikir2
##malukan
sexy
today
dinanti
rekrutmen
terbantu
065
kelabakan
##ijak
kejaya
##zat
dihantam
##zahnya
penjarahan
suratnya
mngkin
hri
bbhot100
##bet
##amil
direct
##mate
aks
waw
##onasi
inshallah
biang
leha
ond
piece
##umbuh
rugikan
satlantas
bakso
skz
wallet
kegan
mkin
powerb
##undry
alfa
golek
excited
deui
napoh
keperawatan
tebang
cuitan
layani
thanks
╱╱
exab
##amon
terlanjur
##uhip
##zzz
endorse
membuatku
tindih
kekinian
asset
aib
##alasan
##𝐋𝐈
psy
##manirahim
dikit2
##𝐍𝐈
ramein
##indik
##leng
##lanjut
cruise
##bisa
sejuta
hikd
kipas
pemerkosaan
burnout
covid1
disayangkan
##┏┳
pemberita
amartha
##angkabau
kedar
##unggah
sumbangs
terisi
agre
▔▏
##╱╲
kandas
discaj
##┏┳┓
▔▏┗
##ikah
##fpi
ngebuat
##┛▕
##eksang
jobseeker
##┛▕▔
pagelaran
##ancem
beranak
teman²
dapurumum
anjrot
perjam
gebetan
##istha
activ
perjuangannya
engap
bersihin
ning
kemkes
##ential
dukungannya
dikesan
puspita
dianya
kitateguhkitamenang
menggiring
baeksang
mangkir
feed
customer
matamu
curahan
##lal
𝐀𝐒
##ilahi
includ
why
##ihati
##cy
##aser
dibekalkan
##pink
omzet
tumpah
mnc
penimbun
tekor
inve
diurusin
polrest
degil
lebarannya
nem
dimsum
##wangi
expect
##shs
clover
diben
hatimu
tempatin
memperbanyak
mengatasinya
jed
wai
powerbeyond
cuss
##pekerja
nyimak
somasi
spring
bott
##ilaihi
##cil
🆃🅷
##🆁🅴
refresh
zonasi
##joh
##otkan
𝐀𝐒𝐋𝐈
kego
dihidup
error
communication
kerjaka
sweeping
𝐒𝐎𝐀𝐋
melirik
🆃🅷🆁🅴
##ggg
alphard
tae
diumumin
karma
ituu
##𝕠𝕒𝕝
salty
mily
garlic
motiv
mimp
pertan
bapp
##eluarga
ketok
kawanpajak
diutamakan
introvert
bip
##fitri
##bitan
umk
##iskinkan
ditertibkan
tokopediaxbts
##ln
epik
tarhibramadhan
##audara
adeknya
daj
kedaruratan
disumbangkan
tuding
kta
sanitasi
in10
staycation
##rem
##juara
kalsel
polridukung
dress
presidium
##ajuk
pemut
syukur2
brengsek
powerbeyondgen
##arnai
feeling
##grade
dihari
mots
predik
nurbaya
bersaksi
digantung
rasmi
##araya
diharamkan
meregang
beramai
suting
##ixing
disabilitas
coup
pemulangan
rutan
smelter
zipper
akbt
child
##이
dosennya
1441h
tere
dikucilkan
##abung
##house
salahs
kepanikan
anarko
##itasemua
10rb
virologi
kaj
kind
##iat
jaemin
melesat
buatku
##juin
mint
##sav
wages
menyadarkan
cpns
nana
##ersih
kegelis
kei
kucilkan
memperuntukkan
menghal
##ocol
blas
perpus
ludes
sekitaran
recover
sijil
klen
basikal
5000
yasin
gaisss
sngt
mina
##nipolri
unk
0813
jabat
##bangkit
ttd
kesalahpahaman
kemewahan
##uluskan
dprimp
hensem
##urin
##amel
persil
tante
##imas
##owback
wiki
sekolahin
ㅤㅤㅤㅤ
##lier
##aak
keganasan
bw
organi
bahayanya
baeksangarts
destinasi
dl
bacotsantuy
pdkt
imei
greget
hilal
usahakan
mbk
pemeri
uwuu
baeksangartsawards2020
##ml
##vas
maa
goda
##mend
pembudayaan
mna
##𝐀𝐍
diam2
wedding
disorot
giman
pendataan
grow
lonte
##yyyy
kitajag
##uwun
breach
mpp
##rasis
masyar
##yer
perencana
dikasih
prokesuntukk
diidam
besar2
##coin
kilo
umbr
talenta
##ography
raih
ratio
##weran
vaksi
nyusul
belanjawan
sewot
merundum
kembal
singkong
buffer
marathon
sepengetahuan
cint
bismillahirahmanirahim
mutusin
hadeuh
palingan
perombakan
anis
##ihi
arep
didepan
dicoba
damono
piatu
prokesuntukkitasemua
glenn
##map
dadah
unpaid
canola
polio
berkecil
ikm
##down
ganjil
zonauang
##ajad
mamp
ngejalan
bermulanya
ndang
menghaf
ditelant
lembek
paduka
wkkw
gitu2
liburpanjang
jancok
kalem
wooooooo
kopas
effort
magang
##mk
##save
bc
jump
mlm
kelola
cita2
##melayani
muzik
saudaraku
ront
punan
ingatlah
menulari
salak
ngebet
preparation
ooh
selal
2023
##indikasi
rapih
lma
petisi
##ologinya
umbrella
##ulihan
kaji
neh
kalteng
tergesa
tandanya
oct
blusukan
follow
memberikanmu
tunt
dipekerjakan
nularin
ground
tdr
jerinx
matanajwamen
munafik
cium
inspir
kosakata
##sti
zumba
pailit
aksel
serah
tahun2
ditakuti
proteksi
pahami
feodal
probl
minder
disiplinp
tiger
digit
##gerak
##cegahphk
ijtima
keluh
konco
resikonya
dimaafkan
overrated
sumadi
icw
bart
kepanasan
##zaliman
kua
##gala
chev
bagitahu
mudahnya
##itkan
diserbu
##olali
##ibangkit
dilike
eyeb
lindungan
rasuah
##pulihkan
hegemoni
berakhi
jauuuh
##nial
mane
500rb
frontliner
##isiasi
background
owner
bsi
##dayan
kebal
jitra
ales
industry
teross
bidhumas
##ributor
##ernya
cdc
trust
pilek
bergetar
path
tanya2
gugatuuciptakerja
eyebrow
meronta
nyusun
berko
tertibkan
matinya
polridukungnewnormal
keruk
disoal
beritater
phone
aspal
mules
ppk
serious
ihh
spanish
##aps
nontonin
millennial
suam
bangsar
##ecially
halusinasi
ngepet
anya
bahar
especially
tarhibramadhanonline
##69
bude
spa
keham
##angati
##td
ngepost
kelekar
keberan
##atannya
wasting
eaaaaaaaaaaaa
zara
##𝗮𝗵
pdf
future
republikmerdeka
hujat
hua
berkira
frog
dikenang
##bersam
rasulull
gotongroy
##bant
exabff
spam
##anch
kadin
jasmine
judgmental
brightwin
membully
suarakan
awani
steel
ngukur
##jelas
follo
##asut
##endor
deg2an
##patuhprokes
senam
##ece
##terior
yamaha
yassin
gilak
goyang
peker
typo
disyukuri
pramb
pendisiplinan
##ansyah
setela
prepare
##lobster
supermarket
##49
brs
kurniawan
kantoi
rew
kepatuhan
bange
gy
##produktif
olimpi
menyisihkan
bromo
menggandeng
pencucian
##stop
petan
5th
perseb
adikku
hilangkan
nadi
goride
##afiliasi
prostitusi
entahlah
##arahin
##cup
berinvestasi
stiap
##ampai
martabak
##usian
membeberkan
clock
##amasuk
jaga2
bisa2nya
access
ttep
cj
##abla
jagaj
berkreasi
bukak
##endong
gamers
pas2an
campbell
gile
seagama
hood
throwback
kih
kho
being
270
retor
konsekuensinya
perkenan
gunain
presentasinya
lippo
menganalisa
##butuh
pebisnis
nyer
mash
brain
deposito
bgs
idealnya
copet
liburpanjangterapkan3m
yixing
ihiyy
ngadu
##anduan
dirumah
##prise
##view
##yeong
sticker
##rok
##rof
##ilak
hn
berlipat
mamanya
terengganu
kenorm
statemen
sedalam
##enggol
lagiii
baek
wrong
##industri
25juta
pelan2
mangkang
kesana
asim
orgnya
kejut
sejengkal
ward
edukasi
anjirr
masmenteri
kitajagakita
k3
##shopee
greg
zlp
wam
keatas
##²in
##iha
kelewat
manaka
note
cet
osis
sukacita
aplg
pratik
smangat
##elakkan
cocoknya
cake
berv
diingatkan
hasilkan
draf
terkh
kesaktian
groom
ngehoax
dlam
##yaku
iyamu
bintangi
ditelusuri
##ederhanaan
inspiratif
lali
pesakit
battle
ketebak
bawahannya
##lob
sayaaangs
misk
angka2
lowongan
cnn
dipolisikan
beirut
banjarnegara
bimbang
teken
##tara
##umaspolri
##andirumah
dirgahayuindonesia
matanajwamenantit
sapu
oi
##asabah
sumbernya
gakuat
satir
uwuan
chinese
zero
berbahagia
dipesan
thrif
##ived
##twit
suudzon
bahasanya
kondis
##obisnis
mendag
azab
tnipolri
mengev
cegahcovid19
kav
oth
msuk
garda
mls
##sejahtera
##alize
less
##baya
setanding
jngan
judulnya
induknya
benaran
hampa
nde
##istek
bernapas
ua
##enas
kalopun
wujudnya
kdrt
sepedahan
cerem
mengijinkan
promo
chung
pengerjaannya
difitnah
bete
cepatlah
lesen
diver
manut
sendernya
##isikan
kebuntuan
sodara2
polreskarimun
pacarmu
dirgantara
kawa
fikir
saki
nyuci
horror
rutinitas
merangkak
pijat
##andangkan
pahang
lngsung
##fm
oranye
terdeteksi
busway
##arirumah
skalian
##egiatan
teruss
alt
shit
ciput
booking
iphone
diretas
cincai
##ukup
swabnya
##nd
tomcat
##ukaan
umi
gagap
##edek
hotman
romance
berjabat
macron
ajh
sumpek
ngebacot
harapannya
undang2
fizikal
##krutan
didemo
ceritakan
kapolresta
penaw
itungan
shopeeid
memandu
agong
sambang
besanan
disembuhkan
##zza
semangatin
ngev
tidakmudik
gates
depression
bolak
penggiat
anjeng
gerobak
##cad
konsistensi
caper
indonesiaku
dora
25rb
masang
dibungkam
berduka
##ucitangan
haritu
sugeng
##eskrim
bok
##adil
kepoin
bosku
meminda
prime
bangg
vlog
pertiwi
##iar
hihihi
sqw
sikm
password
ketiduran
lumbung
dating
syaf
aqwam
kombes
dngn
ehhh
starbu
##oknya
sepert
provokasi
##eksinya
innalilahi
gmm
platinum
kartuprakerja
divisih
terindikasi
ngancem
tidurnya
nahh
jare
##iara
perusahaan2
kecanduan
pemerasan
ngemil
watt
samsung
pelancong
cum
mentor
yesss
smw
##plit
##eterapkan3m
cowonya
bitcoin
ramayana
menghidupi
ibaratnya
kesepian
##fans
##onopoli
goals
staysav
sesuci
pilihanraya
recovery
mohan
##ritt
eight
rangkap
comb
emil
##esty
hqq
##balik
timbalan
travelling
##osankan
pandem1
hartanya
keceriaan
jegalomnibuslaw
##elf
##33
trakt
direvisi
kegocek
260
staysaveterapkan3m
##ekasan
mandek
##place
bertaraf
makasii
menyemangati
disiplinpolah
persebaya
mungk
##ruuhip
berkedip
fish
##dh
##adani
pmb
kesplit
diperjuangkan
bersik
elektro
direkomendasikan
ctr
macem2
##ttering
sami
perizinan
##ukseskan
kusut
traffic
ajaaa
berolahraga
fbi
islamsolusi
3800
menguras
##ernih
##oboyo
dynam
bersimp
##kron
where
bener²
ngemall
akankah
membosankan
belang
negri
dikira
abah
koyok
ditagih
##asilin
unduh
tks
pulangmu
lumrah
bisaa
trritt
blackpink
celik
sajian
vakum
ngeselin
dipungkiri
##☆☆
dijemput
enough
##agiakan
##ikhl
keran
kelam
dibulan
##ipulih
bersetuju
##adata
tung
wallah
##naker
singkirkan
kegabutan
atu
##uwono
tafs
##jkt48
kae
lomp
##nov
##andaran
iduladha
earbuds
mencermati
gass
lohh
umy
indonesiab
ferdian
kekayaannya
logbook
memberhentikan
ngotak
jilat
candaan
2030
tiati
menanjak
##ission
difabel
morning
bercanda
paca
penyebarannya
kegelisahan
gesa
ngemeng
ditukar
sendok
taruhan
mustinya
##ianatan
diimpor
hijriah
stakeh
indomarco
##endahan
rebah
nantang
kayaknya
layoff
dolan
##stick
pure
##hg
pembangun
mentaliti
berlangg
terpukul
nanya2
sadari
##ᅡᆼ
transparasi
##ahahaha
kecap
##kant
panja
elok
newsp
allahum
kaesang
divisihumaspolri
belanj
leader
##lanan
brondong
ambik
takbir
decor
sou
##owan
sembarang
##namakan
sandal
usahawan
dirampas
paguy
mendunia
case
takdak
##zir
##awin
meanwh
##★★★★★★★★
diturunin
look
dedek
mgkin
kepanjangan
tautan
ctrl
membendung
jingan
awasi
triw
##hrs
##dalam
pelacakan
sengsara
kenormalan
shj
pilkadasehatpatuhprokes
trump
rejek
##uguran
gerindra
nyepel
pui
menawar
pegel
heboh
aaaa
##ded
dhua
##cong
jiwas
quora
rsp
##entuin
seharian
##isiplinkan
pratikno
##ected
ceremony
lik
##eline
##orupsi
##rif
keaja
imbasnya
berkecukupan
meanwhile
jijik
kale
diperkeras
##super
indirakal
pkkmb
##ease
##elum
##endem
##aland
creator
indirakalistha
menyasar
##ordinasi
abal2
mauu
mnta
alihkan
tandingan
##leh
plongo
membi
##gratis
ceritain
##health
trilyunan
dicipta
lemon
transjakarta
erd
aah
teraw
menginspirasi
##idz
disrup
protap
groomingku
##andiri
shoppe
##oteknologi
debry
##eren
ikhtiyar
cool
olh
tular
tameng
menggulirkan
tersendat
kesimpulannya
muter2
pendemo
##inst
karuan
bandio
jadwalnya
pemba
##hypen
singgung
##esen
jalani
iron
kolektor
##impor
##lebaran
coc
tentukan
tjah
dahal
dahla
thr
kebagian
konsumtif
kado
##dib
infaq
sambal
##negara
anjer
korporat
maghrib
bagusnya
outdoor
##iy
kacak
bulannya
jauuuhhh
thrifting
disiplinpolahidupbaru
##𝖆𝖓
investasis
surplus
##ejarah
hewan2
##papua
##kwkwkwkw
calling
gama
berapapun
terror
##opong
semiskin
turn
##umahkan
cermati
snow
menipis
##asmita
##arib
digun
##unggul
berjiwa
jml
freshgrad
##uritas
ngembang
kiss
dilapangan
##mil
mengoptimalkan
sosio
dapurumumtnipolri
kewira
wkwkk
teddy
jnt
pinned
newspaper
ramean
viu
tangkal
sedek
meramaikan
aren
taul
nyetir
telpon
moga2
alesannya
##unami
kodok
plisss
geblek
tempobisnis
protokolnya
berjemur
sbs
straw
mereda
penyokong
bersemedi
kps
mengakomodasi
mencak
##rti
terham
meleb
capek
kupon
antonius
mulfan
leadership
hubungi
bernafas
puki
pratama
##inasional
tegakkan
merevisi
belu
snail
planner
summer
suryo
##lokir
satupun
##rawijaya
##tianak
cloud
memperdalam
##news
1st
sepang
abk
##father
250k
psikis
optimisme
##jj
petai
catatansuper
victon
ngejalanin
odr
dipertaruhkan
albumnya
lucunya
280
tgl
##erap
mksdnya
##ongsi
fangirl
dimarahin
bentukan
nasion
abisin
atw
kodim
turunin
own
maulid
dihujat
bg
sokan
tipping
pinrang
terhamabat
ketipu
##stream
pilgub
permateri
jebakan
##emanis
##atarbelakangi
bismilla
ulangtahun
menabung
tumbal
segitunya
disip
sampean
mendanai
warnet
##icoba
mother
poldajateng
##unch
##muda
lif
agres
bertahun2
panjaitan
jmlh
dikampung
500an
##kuasa
afri
btul
extra
tauladan
##eksp
srimul
latif
##rr
keresahan
yuks
kemenkumham
diperkosa
##padapilkada
##eler
##ruangguru
tisu
bhayangkari
##hoax
parf
meb
##kampus
kekeuh
lelucon
tryoututbk
674
logic
merajal
maruf
golput
##ikabur
##ahulukan
hti
mulaigerak
bodohnya
##king
maiwp
terik
##epakati
ibuku
itung2
terafiliasi
budayakan
##nyat
capai
twips
segel
maapan
edul
photo
melambat
himbau
djo
eis
bew
banpres
sahur
##ontoh
hajat
semuanyaa
pieces
kerepek
ngun
responsif
fansnya
mendisiplinkan
##iakesehatan
yellow
adab
##embangunan
warganegara
sepele
gblk
ajak
##acetan
dosan
jkn
melomp
puls
menggunung
uuciptakerja
##𝗘𝗥
geb
gentar
##rikawal
memaks
skuy
lesnya
masjidil
tembus
oleng
sumpa
konspirasimu
dihimbau
kenduri
politic
##pemulihan
boss
bunganya
oetama
##laimer
esel
disuru
ciut
bejib
tokped
hant
woo
berdasarka
##upp
dikuc
berkend
seny
##benih
kenakan
kakap
##imbab
burik
cuman
ketik
gebrak
chanel
ngilangin
chek
longgar
nb
importir
asnaf
kerjaanya
ngerem
bla
sina
##yd
##cover
dipercepat
mys
godfather
blokade
##keb
soa
limp
##apol
babe
endingnya
return
gooo
jualnya
ghibah
nnton
afford
jelata
summ
alternatifkan
skills
fao
marut
nolep
##andain
face
mino
aka
dibarengi
rektorat
kuesi
actually
babu
eku
hbd
ameri
reses
laundry
disclaimer
dongkrak
kuncinya
bandingin
eta
gasemua
kewirausahaan
mengay
mekdi
untukmu
geseran
lagi2
barbar
##from
##awarman
wrna
mengayomi
mulaigerakwithdcode
beradu
inap
emaknya
soo
bsok
postingan
kreatifitas
apakabar
diary
ngab
##ader
grap
##dong
gantiin
150rb
##ilkadasehat
cerit
monaco
memanipulasi
##erk
##uhh
gubernurnya
gila2an
ngabalin
mba
soulmate
wqwq
##intil
mulyadi
disiplin3m
psm
realokasi
smgt
daerah2
copas
merenung
blood
bejibun
##───
ebola
##obr
db
mira
10x
samaa
waket
mahasura
manta
tesla
blakan
muat
sesebuah
setauku
anggarannya
dajjal
##ukin
trl
ketawakan
iming
tepuk
living
berdisk
rp4
wilted
oven
buang2
agro
thankyou
sistemik
fakir
##provokator
kpstian
qt
tebar
meluruskan
kesek
##ekek
extr
sekotak
kronologi
dihidupkan
gr2
##urabaya
isin
diskriminatif
##bersamat
##ambutan
matdas
snap
orba
gembor
siv
fingers
##jaja
beramal
received
##eps
prol
kpp
##uuuuu
##ikhlasan
##ikmat
akalan
##azir
tertipu
durung
rul
##eger
banser
kelar2
dilak
##ksks
##iptakerja
kubang
##𝗮𝘀
treat
milyaran
toa
##ismenya
billion
bitung
ndak
debryna
##iiiii
mani
beda2
mesum
buruan
idolnya
deteksi
publishers
present
kartika
garagara
ritel
mengarungi
kelelawar
bumnuntuk
terigu
##geo
dicopot
hsl
qui
##impa
gokil
chr
waral
limpo
##kej
##pong
##walkan
merumahkan
masker
gimna
summary
belikan
memulakan
product
bersentuhan
fluttering
congrats
1200
##entus
kowe
enhypen
##uncang
zahir
figure
sedi
nontonnya
jahe
bpjsmelayani
islamsolusiatasipandemi
idr
blond
hye
##fire
##okay
riya
sedikitpun
fullset
##emangatin
prestasinya
godaan
membelinya
##ewatin
doctor
wingi
syek
apoteker
##unin
saniti
kumulatif
renjun
##endidikan
burn
forkop
##unggak
bubarin
menyusup
rp15
hehehehe
nganggo
diimplementasikan
kea
akhi
akun2
diangg
merindukan
##anggalan
banking
sikon
mika
shirt
memperh
bekeja
pademi
yoongi
isyt
mendongkrak
buhari
paguyuban
kurl
cooperate
##𝐚𝐝
ditelan
berpikiran
trimak
mangkan
hhhh
pemesan
##hr
kemak
robb
tahajud
pemerataan
##room
sold
cluster
gmail
rolling
##asej
##umpat
##umn
stayhome
ppb
nganterin
millen
kadal
pdam
fauziyah
20rb
sendayan
econ
kuesioner
keser
sukma
berop
menerpa
encik
betah
##anat
diangka
##ahullah
##eeeee
tongkol
##angke
seringnya
ngeb
tvone
bibi
hehehe
komplain
nawar
pyeong
ontel
mngambil
##imbas
revitalisasi
terhalang
ngarepin
eidmubarak
framing
nau
viru
kumasih
jaj
jangkaan
##1441
swas
##benihlobster
kurleb
mengatasnamakan
mok
rip
llm
##ithr
##otin
statis
jaktim
deket2
##tanp
bertrans
wkkwkw
disband
##eji
edulab
left
ipar
yey
bersepeda
##vit
ranking
digas
batch
dibiarin
sne
keikhlasan
pembangkangan
##ualaikum
sweater
nyemp
banggabuatan
##tl
##rap
dijelasin
humaspolres
unicorn
##olib
pertumbuhanmu
menyalahgunakan
dop
##milenial
skil
##anggapcorona
##ilannya
solusinya
##ehin
hyun
dus
##obin
jae
mojok
gituan
sehabis
##popular
terimbas
##ecca
menghirup
───
dikubur
true
blajar
kinerj
dhuafa
kelarnya
beritaterkini
##ipin
bhayangkara
jugaaa
palin
diswab
serabutan
oli
sopo
theater
hihiw
binaan
##ehehe
emco
curang
sekeluarga
selaluada
boba
##ids
##rail
taon
stopk
##you
dijauhkan
tingting
yuh
sesuka
##ehealth
##yakinkan
neutron
semuaaa
nyatetin
##ikad
amplop
berteri
##aksimal
lewatkan
tanggapi
marketplace
bisakah
rosulnya
starbucks
nakut
everything
ditimb
##pao
kenak
gant
misikinnya
perlukan
pinjam
dituju
credit
terselubung
semangaat
penumpukan
rifai
pangkas
dagelan
dermawan
rebecca
kambek
##fin
##ratiskan
kieu
sich
tsel
nay
##esional
mensejahterakan
powerbeyondgener
jualanku
tinggalin
ketir
startu
##putih
kebug
hidden
somad
##yelamatkan
gadi
apalgi
continuous
izrail
pfi
##adamai
gac
##oon
##ukm
dibat
penggemarnya
csy
hhhhh
yow
sebening
kumpul
##ubris
elakkan
##eksporbenihlobster
clu
slot
apasi
pegi
kriminalitas
kostan
##rac
parsial
mengajard
intip
berpemanis
berpendapatan
nggih
berikhtiyar
sidak
##amatin
sndri
visually
wtf
tereak
tetanggaku
dianter
reda
kepe
concert
bidangnya
bergejala
disewa
ekstrak
ridho
##ostor
investment
amrik
##ihalal
pemesanan
##ead
##panc
##isolasi
##sesuatu
nano
berinisiatif
biayanya
sheaf
skb
represif
karakternya
ydp
reti
memahaminya
sihat
insert
##bagithr
doaku
inst
sblum
mengalokasikan
dinsesuatu
prost
ditawarin
cp
vell
##ound
haryanto
pilkada2020
natgeo
forkopim
terharu
paka
malaysian
karep
bertamu
##𝗺𝗶
ngmg
drone
days
##bpom
mengajardarirumah
mencek
pmr
digagas
wanya
pembantunya
jessica
loyal
##pembangunan
terbarunya
kating
##chain
##nak
banggabuatanindonesia
adopsi
##𝐈𝐍
gelaran
perasa
##edule
##fren
tuips
dihorm
memyelamatkan
silaturah
##aah
bgi
ngajuin
malem2
avan
dibagiin
stage
diamalkan
strawberry
np
##rov
aldi
##rima
moshing
dear
nyala
cotton
##pelasi
##────────
peme
bolos
##eer
dipic
layangan
curhatan
dikurung
kolak
uea
##atau
petaling
kadis
635
##𝗮𝗺
##edot
ghaib
mangkuk
gf
bikinnya
##ility
bonek
amati
cirinya
pembob
mencuit
ikut2
guil
nyapu
grabfood
##uciptaker
price
trading
##owkw
bt21
lost
zone
##vers
diurus
romant
dibub
smaa
misuh
berdalih
kelimp
##𝐞𝐫
##endir
tinjau
mengoptim
penjelasannya
indi
sederhananya
##otif
esport
tertuju
vellfire
sef
membebani
gini
utbk2020
melunc
kualiti
berinisial
dikota
erdogan
bergaji
##tuan
sebe
subb
dich
kalang
##taun
ditan
resesi
terbitlah
menunjukk
##ahar
wayah
tipi
ears
394
bef
347
smga
ditemenin
hep
pelik
duda
dahi
polricegahcorona
##comm
##distancing
exaar
cepetan
##adung
diuc
##jug
kembangkan
exaarmy
adidas
seakan2
duh
teruk
adha
still
mistis
siuman
royalti
##ammad
kitchen
kezaliman
geus
kic
kary
bayarnya
laung
skt
berimpak
touch
##ancou
##ancouver
bongkar
tweetnya
𝐊𝐀
wargi
rwwa
enteng
loan
hak2
mkp
didaerah
parfum
aamin
reks
##oikot
anak²
kempen
##ikultura
berati
dapati
##aindonesia
fren
mipi
##acorona
kendiri
modelnya
##vio
ambi
karantina
##ogol
sejawat
slide
diem2
normalize
##kipm
yaah
berlangganan
lupakan
terukur
##zub
##umel
pnd
kwart
twiterran
anarkisme
teruslah
berkegiatan
keseriusan
rejeki
episentrum
bathin
sok2an
huhuu
ditiru
merdekabelajar
baca2
gantikan
tdl
ngembangin
krus
mingyu
##ority
ambulans
deketan
d3
mnjadi
unpopular
pelukan
##ongh
##owk
cru
menginstruksikan
europe
vip
ahhh
semuabis
kerian
merungut
hahh
perhatiin
eselon
would
kemanapun
lekas
andhika
antibodi
paid
##elahkan
karat
fearful
interpelasi
rahayu
##ejer
kknt
gibah
dahan
##come
taks
diperbarui
##digital
santunan
##ysis
hmm
slmt
tonggo
stm
didenga
bidikmisi
bupa
terim
ricisbagithr
mengkhianati
bumiputera
haa
naif
seenaknya
##afay
##leb
##cer
mwnurut
##ghh
penalaran
jg
##tangga
##rokan
nelpon
tidakkah
matian
socialdistanc
ubur
kuartal
ttg
##semangat
##anin
kmi
dibilangnya
penyumbang
putusin
sepintas
maw
##abeli
##pak
disiplinlakukan
##ushing
##carf
disiplinlakukan3m
come
bercinta
##pac
friends
loyalitas
berulah
##nahkan
rangga
woman
##empati
haters
yuwono
kelasnya
onehealth
crisis
kurangin
pfizer
seka
assalamu
pold
alfam
iuran
diupload
##88
econsave
sepe
##edian
heads
awakmu
dicetuskan
duren
kupikir
ybs
pdahal
kesiap
##adanan
polmas
diliput
tolakeksporbenihlobster
sahabatbpom
expo
majukan
relation
399
kukert
kepalai
nuhun
kejanggalan
##260
bercocok
tampang
sadikin
##aaaa
biasan
dikepung
tuned
slma
ijazahnya
gampa
yabg
##urban
panutan
tipsnya
##jiwasraya
dikirimin
dt
##pos
##ejin
##muh
indom
bism
kate
gaberani
kebutuhannya
##iduk
warteg
myself
shake
berjatuhan
multid
amzul
amzulian
without
##arth
##daskan
rp9
repub
manusia2
corrup
lsg
blk
internship
bust
ntu
##ᅧᆫ
wkwkwkkw
sebagi
poll
##obrak
ktemu
zonaba
prioritaskan
beretika
##elling
ucapannya
amaran
dd
apart
konyol
sepuh
ngmng
siswanya
berbulan2
strong
lawanmafia
jeno
ice
minded
memprioritaskan
tdi
relokasi
##looking
kemaslahatan
stopkonser
bst
##ikasih
fh
soto
kulkas
##iten
huhuh
lwt
telp
ownernya
alhamdull
jeli
##kp
pasar2
mengindahkan
##abl
kolab
praktikum
##ilmu
serenta
until
##ashop
rada
mengubur
ootd
blabl
luw
##anews
adaa
separah
peres
bersedih
angpao
##ilahkan
tabs
dijajah
mengelakkan
600an
##𝗶𝗱
##eshop
cuplikan
rizki
persekut
setuj
personilnya
ley
awas
meeting
ketimpangan
indira
##self
maafkan
##ability
hierarki
pkpd
mono
ns
jeung
rm5
benarnya
stagn
berkut
##eeeh
covidi
##berbagi
ramaikan
##2ku
berkawan
hbis
fast
vlive
##hadir
wakakak
##alla
##ipeweyin
kwartal
##ajui
##ashafay
##ksemua
hapuskan
##driver
berbondong
ybhg
terpilihnya
dindashafay
##orrow
estate
##ilatur
ignor
tmen
diada
##idol
ngusul
remeh
digipeweyin
taurus
bepuasa
nyatet
prep
perjuanga
kesah
ush
##ekala
##istribus
mandang
kampusku
##utksemua
dirmh
mencurah
lucuk
edaran
dandan
unsp
gs
hormati
ngelarang
dises
sholeh
iy
##long
skripsian
##caday
##kub
sweet
ketar
help
pph
yaudahlah
kik
moto
sikut
anak2nya
kaprah
waah
colek
stopkonserunfaedah
buan
bppt
##erul
##kemajuan
dpririk
##asejahter
##oboro
subbab
##ampakkan
piket
kapolricup
gc
##emprot
##ortun
kasir
puing2
refreshing
wey
##kab
boost
jeddah
foreign
lesson
include
kelimpungan
##gai
##angenin
##angkung
bangee
kebugaran
megakita
nyakit
prnah
rizieq
carut
venn
lps
bisaker
sykt
guru2
ids
kangenin
gembar
mensosialisasikan
##hhhhh
kuj
retasan
##fil
mewancar
merdekakan
dipakenya
mewancarai
menaikan
##iper
fils
hots
ting
##aq
eighteen
canggung
𝗠𝗮𝘀
menge
satu2
score
yia
heavy
polris
berdomisili
nentuin
jengg
sagu
emos
dipendem
terku
tirto
berenti2
broo
mbuh
##manir
stereo
butuhdriver
curi
diterapin
lha
luang
kemakm
rampas
ktmu
##story
omni
christmas
##nyaa
isk
dist
dibolehkan
stor
neolib
billing
kedi
dima
akurasi
agent
ditelantarin
arahnya
kanit
##𝐫𝐞
keluar2
ngeliatin
merajalela
kj
workout
##uam
sajalah
depoh
demografi
haven
##ubungin
inih
bersosial
vision
analogi
zonk
cres
##uno
komodo
terjawab
lom
𝗕𝗘𝗥
hadiri
##𝗨𝗞
rtm
shushing
broto
mongering
onehealthkipm
quality
dirasain
##gt
penyakitnya
emplo
pertimbangkan
##ought
##pas
polmascegahcovid19
kejauhan
baksosbersamat
sekarat
##ures
polwan
pabrikan
khilaf
carrier
nyepelein
##ently
lc
digadang
kelaperan
tnipolrijag
sumule
narasinya
##𝗦𝗬
konteksnya
𝗕𝗘𝗥𝗦𝗬
apprec
𝗕𝗘𝗥𝗦𝗬𝗨𝗞
sustain
pengkhianat
##atapi
vidcall
mebel
sekecil
headscarf
cengeng
pencitraan
tangani
hortikultura
bantal
hello
steril
clean
2th
##𝙪𝙡
matematikanya
menhan
dikeluarin
huf
##sert
100jt
##eel
menerajui
swit
mingdep
##onor
golo
rrc
polisinya
##anataru
##opy
tnipolrijaganataru
pandeminya
usang
##unggangi
moda
tokonya
kakak2
dangdutan
𝗔𝗺𝗶
s2
𝗛𝗮𝗺
##소
##𝘇𝗮𝗵
##𝗷𝗶𝗱
kesehat
salut
isytihar
𝗠𝗮𝘀𝗷𝗶𝗱
𝗔𝗺𝗶𝗿
𝗛𝗮𝗺𝘇𝗮𝗵
happen
dpririkhianatirakyat
larang
charity
krw
heuh
indomy
##hebat
ceban
sebagus
kapolricup2020
dibareng
nyah
##olim
dananya
prest
pembenci
katain
##mania
depkes
bergerombol
teroka
pratch
##ontonkan
definitif
risk
merev
pemantapan
nangisin
lany
seko
mood
dipangkas
politician
pratchett
##gul
surprise
diijinkan
menghantui
ugal
trh
ahaha
syawal
menganggur
laporannya
berangan
investas
edin
powerbeyondgenerations
iu
semang
bersin
##jne
otaknya
onta
##proper
aww
badm
couple
please
yeet
##estyle
kacung
kopit
diuntungkan
vak
dipukuli
untukindonesia
quick
legislasi
doing
rengginang
##unis
berbaik
karaoke
bondong
jagoan
##urnal
ato
##reformasi
mengibarkan
aki
twitnya
##rock
ditangan
kapalnya
##ggu
tanda2
franch
jongos
gajinya
diversif
saji
gbk
dprrikhi
legislator
mengajardarirumahkemdikbud
##ogoh
##iknas
##coron
kasur
dikultur
commerce
##rofesional
##itm
uangmu
##lusif
supor
##ariannya
slesai
##1441h
kelelak
mayday2020
kelelakian
jf
##arahi
cabe
##dihati
##auhan
beberap
##pot
taro
##kandemok
ngaca
ena
##shot
ngejel
kedengaran
stesen
##mian
ikut2an
brt
intens
pemulung
malu2
spiral
diterpa
##ulap
lys
anteng
saranku
nasibmu
silahtur
hospitality
##aranin
marker
gundul
investorpedulinasi
soobin
##eknya
sial
terbelakang
##udak
ding
ngew
##odohi
##boi
gata
gos
aduk
pertanggung
minggat
speechless
##𝙞𝙩
reality
sekali2
dipecah
##metrotv
##isab
2025
pelakor
jarakmu
perming
pasai
biosta
aud260
disentuh
##𝑨𝑳
setakat
pembangk
##echan
ketahu
lapak
bersilatur
pertanyakan
traktir
##𝑨𝑫
taqwa
pst
bkan
gerah
wml
harlem
mmaf
b1
krj
anjr
cukupkan
spoiler
belajardarirumah
##umenep
mendata
berpelukan
##jae
biden
##utuh
photocard
disiplin3mut
terbeb
barokah
resistensi
dot
fkm
hancurkan
unil
premis
majoriti
##𝐚𝐧
trims
baksosbersamatnipolri
brrti
ngeprank
mencairkan
kesuma
nc
hantam
##adab
##etic
payment
##iaan
##ible
sigi
ngefans
bewara
##𝑬𝑳
siroj
ndi
##𝑨𝑺
choice
usulkan
tuntunan
flight
astonished
penang
##tangguh
moncong
dosanya
kaaba
sofia
amatiran
##dhah
##ending
##angkum
##𝑨𝑹
kepepet
waketum
mewaspadai
##𝑵𝑫
kompeten
anget
ipo
jos
then
musiman
update2an
ciduk
sbgai
##kers
salahmu
beginning
##dm
##riber
##ihin
thn
kepedihan
cuekin
4x
##63
##rawati
##𝑶𝑴
##etelah
mahhh
nongkrong2
##36
menebar
##𝑬𝑳𝑨
##𝑨𝑺𝑰
kebanjiran
##𝑶𝑴𝑬
curhat
buya
sowan
𝑩𝑬𝑳𝑨
𝑼𝑻
##𝑩𝑲
##𝑱𝑨𝑹
ork
recruit
mum
##asikita
𝑩𝑬𝑳𝑨𝑱𝑨𝑹
vaksinasi
𝑼𝑻𝑩𝑲
𝑰𝑷
𝑱𝑨𝑫
𝑹𝑬𝑲
kenalan
##𝑾𝑨𝑳
##roll
##𝑵𝑫𝑨𝑺𝑰
kbs
prasetyo
##𝑶𝑴𝑬𝑵𝑫𝑨𝑺𝑰
𝑱𝑨𝑫𝑾𝑨𝑳
msi
##emur
##uts
𝑹𝑬𝑲𝑶𝑴𝑬𝑵𝑫𝑨𝑺𝑰
𝐭𝐡
swalayan
hade
sinkron
califor
fuc
diket
sebark
kesampean
dipermasalahkan
glc
percayajokowi
ngelawan
sitaannya
pening
orange
followback
ver2
##pesan
forward
##tore
##merdek
bihalal
membasmi
waspad
##ksd
##anggg
grub
emerg
##ucu
rispek
𝐭𝐡𝐫𝐞
mengemis
kejap
statement
risih
bilion
##fs
pihak2
sebaran
bisakerjat
silo
##════
ngr
##othy
keriaan
nyetok
wtp
expert
nyaaa
##thohir
pnting
eeh
obrol
digoreng
bekalan
##alamualaikum
genaplah
##cky
##ulloh
dibubarin
tenga
kdrama
ketahuilah
##uluhan
cb
lusa
makcik
syok
kamil
ngebela
pasarnya
disanjung
berhar
##ungkut
##erangan
##aaak
pimpin
mening
asem
fraud
muluk
bought
berempati
hiya
##lockdown
campakkandemok
nyangkut
pembahas
filmkan
lpg
campakkandemokrasis
bunt
##eken
melelahkan
##oten
ueueue
tomorrow
ent
syl
subianto
opm
raffi
##etelahcorona
mengumpat
##otol
ojok
##free
kalahkan
pemerinta
##jakita
##kt
terseb
airport
akusetelahcorona
punyaku
juta2
##istribusian
langs
nice
coba2
##dhf
inisial
kebijakannya
turunkan
tenggat
cooker
diktat
mengasah
𝐭𝐡𝐫𝐞𝐚𝐝
wirausaha
digeb
##ekonomibangkit
pakaimaskerjagajarak
kewaspadaan
##okaw
mv
investasih
waiting
kemendag
𝐊𝐀𝐓𝐀
##itau
berbag
suju
moms
merepotkan
epidemi
##abisin
nimbun
##jaran
##cucitangan
gasalah
dikamar
##induan
komunikasikita
##aiwan
nyakitin
nike
outsour
cw
geser
bhinn
##𝐈𝐍𝐎
campakkandemokrasisongsong
𝐒𝐈𝐍𝐎
##abur
olig
kelean
##apppp
##encer
kuatir
armykit
picture
cendol
tertular
berbobot
tnipolris
inshaallah
berjihad
𝙨𝙪𝙡
ancen
##𝐍𝐈𝐌
𝐒𝐈𝐍𝐎𝐍𝐈𝐌
𝙨𝙪𝙡𝙞𝙩
trenggalek
iniii
tiduran
hidupsehat
bernasib
guide
##unten
listrikuntuksemua
sobatani
sever
estetik
##edis
ngumpul2
##yeon
campakkandemokrasisongsongkhilafah
buntung
malming
kesmas
artikelnya
dibutuh
dimonopoli
kardus
wann
akselerasi
sja
##aserentak
disep
##sive
wuj
azis
menaklukan
lpdp
berfaedah
tanoto
kemarin2
ship
ciputat
dzul
kemenko
attack
##elajarin
##lr
##udes
pengang
215
prefer
gulung
licik
brm
##das
##umat
antiv
kupelajarin
fmb
ambek
buruhnya
##dhe
terbayang
padu
sirna
finance
tsk
keur
pabriknya
plt
remote
ngemis2
speaker
hoodie
publisherstory
sekeras
202
##enceng
luv
capeknya
astro
walo
lincah
##base
otsus
cewenya
dobel
mene
ditaiwan
krn
##gaskan
berhari
membunuhmu
jala
##tg
##embat
bersentu
##sikan
kuis
deposit
menghentak
##tie
tergempar
investasiharapan
##akut
##amik
terjad
kemenaker
disayang
komersil
mati2an
cangtip
dbs
##arasi
disiplin3mutkp
##idul
seki
pelni
ulet
waras
diadain
pss
goes
brapa
idk
malioboro
copyright
munc
usahain
jerawatan
cherries
kuatkan
##alista
##utt
##harapan
scrolling
montir
##ulli
##jokow
rambutan
asdhf
rapid
puling
ditawari
akuuu
lendir
hin
disahkannya
##gam
bgitu
balikan
andh
sinergi
tpsk
sederet
ngedekor
kuliahnya
outlet
semarakkan
berjamaah
tnipolrisolid
diajar
menagih
bahlil
imo
datangi
citakerja
pemutih
bray
savekom
flat
susternya
celaka
##fhada
dumai
##jajdhah
mimpinya
berilmu
asdhfjajdhah
zina
asdhfjajdhahfhada
mantengin
vivanews
disiplin3mutkpilkadasehat
nz
nie
rungkut
##lika
##erjuangan
kebijakan2
nail
sotoy
iniih
menerap
##jut
##bait
mahal2
kesihatanmu
##viral
trf
issue
sambi
kuadran
menan
manggung
dike
pong
dimaki
##adirumah
lowker
nadhir
kerupuk
royalty
urgensinya
menghafal
hangout
melanc
padah
nger
sinis
referral
beza
lampunya
ogos
wats
rakyatmu
##38
ngerawat
##istrikan
teriring
sohib
feat
hingg
yakk
##bre
berno
artian
##acegah
maharani
ptn
ngeri
##engahpandemi
##ious
songong
##wib
pending
kenderaan
##orokan
adaptas
merakyat
ost
sbelum
disember
skir
ktnya
latifah
recruitment
krg
jele
##iskriminasi
sering2
jacinda
ngos
pasan
##mn
##░░░░
adhi
menyongsong
trimakasih
guilt
##liam
lysn
c0
##epeng
dimanapun
teten
kemasukan
kebalik
##1111
futsal
wb
karpet
obas
dibalas
gek
##obilisasi
syihab
##rg
diagnosa
supply
jakim
brompt
##uramuda
teac
kesulita
##𝐢𝐧
peneroka
semoea
kewarasan
##eussi
##pancasila
siloam
wujeussi
treler
tabah
tergantikan
kulin
jls
bohir
mahasuramuda
race
##gg
pedul
forkopimda
berkaca
##ormu
kitty
memeras
##uwe
hore
pelanggar
##atub
pakdhe
sabak
##zubillah
##hib
##pping
2jt
kelab
cream
bos2
flis
ecom
ngac
charter
628
akupun
vendor
laksanakan
cilok
alibaba
suroboyo
amankan
yahhh
melancong
##thing
##intern
##prab
lempar
upik
dramat
pendistribusian
dimohon
bernoulli
syopi
##amed
bakul
woyy
jokowikabur
baha
belit
disalahkan
dibiasakan
fokusnya
##akal
goodlooking
bisni
psk
##aste
bidhumaspoldaaceh
selebih
bioteknologi
mobilisasi
kreatifiti
boikotjne
malaysi
sbb
apres
hafalkan
berbiaya
##agak
##ukses
memperker
gaesss
kerawanan
soe
ngaku2
kangen
empire
officer
##yh
domisi
asmoro
pemenan
##ansel
juang
kemang
wasap
sukseskan3mbersamapolri
artist
aaaaa
##745
sbl
kahkah
kz
mejakita
mampet
formulanya
##ulas
begitupun
nasiikan
##eated
costdown
haik
##erasa
##pilkadaaman
##patuhiprokes
kana
picu
##ains
##┃┃
##tto
##iram
senasib
fasilitasi
hunter
##nn
biayai
##amanusia
serap
sesuain
bersalin
penyek
apalg
yourself
nikmati
ingatpesan
aya
kontribus
##cket
##uliah
samgat
dakjal
allahumma
yuri
##pihakan
akarnya
matre
ditata
halloo
ngut
percikan
jauhkan
informasinya
##dengan
##º°
aye
mapolda
kontennya
katadata
tripping
kmbali
aduh
semaunya
°º
jargon
×º°
diskon
##×╾
leba
terelakkan
datengin
°º×╾
anieskeren
##ether
such
korut
disituasi
doyannya
meniadakan
property
kutip
hbdj
latian
jalankan
alfar
dibukanya
digusur
month
ardern
sbg
lanjutkan
dishub
berbal
pulangnya
imho
terjang
curva
ndabl
pengecekan
privasi
bertitah
otakku
weishinist
zimbab
motogp
nyoblos
##adama
duluu
injak
melejit
abg
usb
simpatis
kihno
##gaulan
rese
jajarannya
ehm
##kemen
##anjug
##ariah
##eriusan
##ancovid
memperparah
brilian
dgr
pecel
##imensi
envel
diambang
insurance
caci
kalia
marahin
kepotong
shoul
minggir
chadwick
kebangkrutan
polresta
khattab
buanyak
##loud
haechan
senyuman
tungguin
##sakit
disektor
penyederhanaan
paketnya
##pih
envelope
covidnya
##urutin
abisnya
172
piy
meningitis
polrikawal
menep
365
smn
persal
before
fang
##lawanan
rerata
##egera
covidiot
cila
regul
sekat
ngroyok
pendiam
terlantar
acuh
sori
pling
mbo
##yiakan
migranjug
##ianyiakan
habisnya
sadis
menyianyiakan
beberkan
##adalam
tergi
disamain
kinda
##iang
##osoft
fighting
10jt
snsd
kemeja
soem
liatnyaaa
##zier
##ffa
gelakkan
lokdon
hw
ekspektas
rb
wih
##arge
anon
keberk
apa²
warn
direktori
hery
p2p
##andatangan
abangnya
##arius
obaseki
dapetnya
benar²
transmi
reaktif
menyederhanakan
idenya
haps
memban
merespons
toyib
kalu
ats
lawanmafiakesehatan
jengkel
hope
oge
##dirkan
##card
lahirlah
relationship
sense
glove
polrih
empati
##pahoax
alhamdullilah
disug
dipoles
brani
prasaran
realiti
truck
mumpuni
mean
smartfren
click
##spot
hbdjnt
migranjugamanusia
dagangannya
kartasasmita
fs
##sier
sekara
hrg
##etasi
perkerja
letih
rekam
ignorant
proaktif
##esain
suasan
ngevote
vice
shamrock
##37
##anyekan
##acovid19
##𝒂𝒕
okee
taraweh
kantin
keterp
baba
2juta
makasihh
komitmennya
##ambangi
official
##oleransi
naon
vac
##itur
berasingan
samsat
karni
dianggep
demand
##otal
temanny
bisakerjatapiboong
pahat
ngump
##riku
##kungan
ravio
bermo
unoff
lancarkan
##elet
##o2
gofoodnya
##radikal
kebangetan
mungkinkah
million
silapnya
oportun
revol
tbc
fellow
millennials
##fort
lawanmafiaalkes
##aging
release
stain
fg
gumi
maren
meneb
paved
suntik
tlp
opr
bahannya
bontang
pembata
kasus2
obsesi
raport
##rebu
nakut2in
yekan
kinerjanya
##angatkan
mbuat
##mmmm
anakmu
dirikan
libatkan
##akanya
menggenjot
##pemu
gamungkin
emiten
ikrar
setujui
coronab
melegalkan
tnpa
zimbabwe
hala
##cabut
disemb
mendapatka
mempermasalahkan
syedih
telat
0822
lolak
bangsal
kuotanya
semaksimal
closingan
ketawa
##ibawa
##md
plate
produk2
lahad
##matullah
##97
tauu
##sid
silahturahmi
svt
brok
environ
##inity
enep
confirm
presid
##ahasiswa
dipertemukan
bertebaran
terkubur
terpakai
menggen
kenang
pedih
diff
kamibersama
selesainya
##hwan
sempak
naus
veronica
##akn
##inginkan
inovasipolri
flag
perpu
rajiun
karimun
##𝗮𝗻
nyimpen
merindukanku
hopeless
lolakang
5x
eo
ekst
scor
bule
##deng
diwas
##disiplin3m
lalin
tkut
liriknya
egois
beyond
hanbin
##aprofesional
kecolongan
skl
mateng
##46
antisip
terkasih
ngebuka
nauseated
sinting
##iw
##urr
lalang
penghianat
dibelikan
dempet
didenda
adp
ditangkep
stater
boros
menyianyiakanku
##mbh
##omu
obrolan
kejadi
infoin
skirany
##umpu
listrikuntukrakyat
dipak
resp
kemampuanmu
pngen
testim
salahsatu
dikantor
cangkir
menitipkan
##emputan
##esakan
prize
bertaruh
lmao
semudah
takyah
##entah
allahu
modem
tergiur
tq
terprovokasi
kesejar
rekancomm
rekancommuters
sempadan
syafii
##년
pressure
bf
anja
##ubu
holiday
makl
bacain
##icovid
idealis
bhkn
##ulillah
ngalahin
konsp
ct
lb
##lay
undi
brobr
msyr
aldian
terbongkar
lokvit
berpuluh
kenyang
407
multidimensi
trick
mengcovid
ukh
##ced
okelah
iyh
collect
##ostik
hest
sham
sakitnya
innis
herbal
lucky
quote
targetkan
rumkit
selamet
tnipolrisoliduntuknegeri
pint
ndk
##pold
##gona
menghiba
aminnn
seluk
titah
pegiat
obs
seoy
mengi
##ajuin
wkwkkwkw
pdiperjuangan
rece
mempertahankannya
##▓▓▓▓
tell
elegan
gwam
hee
mengekspor
berjejer
provokator
beratur
808
yess
##iasan
selow
guling
penjemputan
##hyuk
bicarakan
brav
nikahnya
##tenk
##isu
ditopang
sterilisasi
dilockdown
142
200rb
brmksd
innisfree
maturn
ngekos
mengunggah
600rb
poldaaceh
jatohnya
thankyouch
tuli
bergema
##apeduli
macam2
##idas
selesaikan
narsum
heroiknya
investasinya
mereka2
umrah
##rahmatan
thankyouchallenge
##onok
bacotnya
droplets
perusahan
kesejarahannya
blah
anonim
##aransi
aras
##media
##apert
ngana
ooo
tera
cikarang
inovasipolriutksemua
jleb
jyp
lesu
mangan
nong
##isel
minho
nyalah
usahapun
concern
lompatan
##ersary
galang
gumiwang
nude
seal
smile
pengerahan
sampiakan
bengkak
diwawancarai
servis
skrips
dried
quota
taf
##kg
##kanlah
##oly
moves
depot
##ompo
bgni
simple
leyeh
ily
yra
petambak
isis
berkarir
nanam
vivid
ogy
designer
##easenya
##ijar
bedakan
terinovatif
assegaf
xl
blablabla
maturnuwun
pengancam
tengiri
reaction
walkot
lalui
##rakat
##rahmatanlil
##pil
##tetap
##iant
mamak
pilihmu
lifestyle
dikangenin
##lic
okey
##ubahan
awani745
saefullah
kenali
emak2
ayahku
##urnakan
meluasnya
idulfitri
lhooo
retorika
banc
xiaomi
teacher
rogo
gtw
tersalurkan
bandage
pick
kitu
teko
pulog
firli
eda
##opren
laknat
knet
ngerusak
slamat
srimulyani
##ingannya
meretas
ems
dilempar
resume
nikel
nakesnya
woiii
divaksin
ecommerce
##aub
kmp
patriot
lrt
kelakar
mele
disumpulkan
kirimin
ciptakercegahphk
recording
hentian
##cycle
wariskan
##iawan
kebob
awet
keluarg
saban
kebawa
penggalangan
sepend
diprotes
perbolehkan
nadin
setujukah
##sip
hidupsehatterapkan3m
##daffa
semuan
##itasnya
berhemat
bumiput
ijinpun
ngetes
prambanan
benahi
fail
samperin
membelanjakan
anu
merogoh
##action
ramai2
pesimis
ajakin
##aizat
##fromhome
ntn
dibalikin
diteng
taji
rea
gelem
tarikan
boyband
bertaubat
nj
keseha
##ulur
725
ayang
kepingan
ayop
tebakan
keseringan
perij
orwell
smrc
ditengah2
yank
##sha
zein
jalin
pendampingan
##udahin
soc
drg
##politik
rohaizat
cuu
cvd
##rahmatanlilalamin
molekuler
kitas
##egeng
jamnya
hahahh
##ontaminasi
kelakuannya
wim
progres
##tuit
ngatasin
dengernya
gapura
tru
##arengan
##ekuler
claim
##atasicorona
buzzers
rental
terpopuler
##weuh
direspon
walking
devel
##intaro
pesan2
ngelewatin
kinerjaprofesional
investasik
jela
korbankan
kinerjaprofesionalpolri
##ominfo
bisnisonline
4000
memulangkan
ngirit
proteasenya
tubi
gedeg
jahan
##ising
truth
dikosan
moal
rolasan
ize
nunggak
keanu
ekono
##ituari
##85
dija
mencle
##ampanyekan
arit
##atihah
berterimakasih
##preneur
obituari
coach
hoegeng
kampungnya
325
fesyen
paw
ronde
tear
##unnya
gendong
pilkadasehatdisiplin3m
pagii
##uette
sumpahin
berkeluh
because
cent
tato
panutankub
##adh
##ination
ralat
teknopren
excuse
hujahnya
sebaga
bersesak
superm
kelaut
taatiprokespadapilkada
pembud
besa
##encil
gemash
mknya
sesuap
alfaridz
dump
neb
insyaallah
##ogp
dahh
##flow
rusuh
##bagikasih
rubah
##77
##dog
diungk
asalamualaikum
flow
balek
berjuta
katholik
outsourcing
kukerta
panutankubukan
menteri2
lahhh
dihentak
anam
dihabisi
mengharap
pltu
tipes
pembelanjaan
kupas
kbm
##4r
nguras
##orin
streaming
focus
ngrasa
##bas
##aberubah
##ingkah
kui
burger
teringin
wibawa
vide
forzam
mrt
artisnya
bernas
##indonesia
pulp
jagajokowi
##taruhkan
##emakin
##adesh
markijar
termakan
forzamilan
##emban
police
taxi
menghimbau
menuj
##quet
90an
##amg
donatur
didap
airasia
##ekonomipulih
somp
keterpurukan
##akepri
##odohkan
newbie
kambuh
segeraa
nimb
kesukaan
##ihhh
dodol
##aberubahmaju
kalean
jpg
pasie
gemini
sle
##tet
nuna
##ayoman
dinegeri
##ugihan
semuabisaberubahmaju
dinda
seoyeji
##olol
taburan
ironman
##wg
fix
telusuri
laporin
##ratan
##𝗶𝗸
koron
troto
mantepin
ekspek
##layed
nyenyak
middle
##aupdate
perijinan
yook
cih
##roni
silho
##akers
tree
pernahkah
harg
satun
splayed
meremehkan
cosplay
berharganya
kow
##pri
##sah
##eries
maaf2an
397
motifnya
152
tnipolriajak
proud
silhouette
clear
bolong
ngaw
unfoll
##eign
##ockdown
##212
pembodohan
kada
ragukan
sdah
termurah
samaan
polrestab
ekspektasiku
protokoler
bunny
realitanya
panutankubukanprovokator
hamd
panasnya
##mput
jadul
appsi
fasa
lng
bnn
alpa
berharapkan
sebabkan
kaleid
##demok
stigma
opportun
gotongroyong
wonder
terkhianati
##adha
tafsirkan
msa
budget
##protokol
gasabar
duper
commission
ujug
##amies
sebarkluas
kids
##egnas
gamas
rente
방
##imo
##uding
##sign
mnt
##break
tatap
membahagiakan
nege
rsup
mlu
desinfektan
problemat
semacamnya
terbaca
ace
flashback
brobrogor
##amelawancovid19
mundurnya
keterlaluan
staterpack
masd
unfaedah
##zam
##udang
##epeda
kebelet
belio
mulailah
koki
fals
variety
unnes
karikatur
ngebaca
kt
lompat
##brid
sangu
seed
indomi
olok
tnipolriajakpakaimasker
gaikut
thun
ajukan
multif
mcdonald
talent
mentalitas
bhnasional
adatnya
kontrolnya
berdesakan
jaber
pigai
##eback
diinisiasi
indirakalista
##5n
emo
pegad
terkecoh
##ggest
ngerepotin
##tiful
prolegnas
sulap
##property
##embangun
keyword
hoseok
##osss
topic
memaknai
penikmat
##ribuan
tika
##yuk
##icle
memperbarui
dijangka
crow
dedikasi
talks
ohhh
##aattttt
woe
tapera
##strasi
lawancorona
perparah
jinping
##umuran
##ayal
drones
dimajuin
##syariah
js
rumahtangga
##iharkan
##giveaway
suwe
ppppp
##korup
tokohreformasi
dech
laah
fmbst
##apandemi
selevel
menyulit
followan
##udhu
##endiri
tabir
tdak
gulf
merayu
pengib
##u2
diputus
##𝕖𝕓
kemendes
pilkadadama
##matullahi
orwellian
inal
ruuciptakerja
didahulukan
dalan
243
hooh
##dney
dugem
save
dipajang
asah
##ongko
satukan
##antuumkm
purnawir
konveksi
tundap
gaga
menkes
##ubual
dalgona
##merah
halangi
##urance
chick
membant
dbawa
ehehe
nanas
keje
sebelahan
penindakan
dapilnya
mengukir
simptom
unggahan
congor
jikal
ngel
edodecides2020
sebutin
malemnya
##𝐥𝐚
profesinya
hiruk
##overs
meminj
barbuk
mencla
taegi
komplit
##gil
nikmatnya
kerudung
nyelam
ruginya
mmbuat
##jeuni
skim
epicentrum
##hantu
##venir
##engaja
utbkruangguru
nyemil
##max
komuter
nyamperin
kurva
jenius
kumhamb
uwa
weekly
##kok
seutuhnya
##ciptakerja
##탄
pisah
##uarat
##ambak
buying
sirkel
##banten
lapas
better
##akaka
retail
pikuk
booklet
kumhambantuumkm
vd
##aposo
##umannya
##endikbud
##opr
validasi
kalk
##point
bersosialisasi
dessert
sampeyan
insy
mempersulit
##osto
berkeras
rafat
suru
s20
xen
diajari
berbakti
biom
siii
domino
berhutang
nyentuh
mubazir
door
doakan
diwaspadai
방탄
##iluhur
direction
rujuk
lain2
mesy
##pd
bouquet
penawar
pemodal
keprib
##hae
malangnya
indahnyat
kebijak
kgak
srintil
gurita
creative
##ukt
portofolio
hentikan
##ubid
amies
amn
difoto
indahnyatoleransi
eee
##minggu
trny
bertubi
komers
trotoar
mnd
technologist
##hot
##elayan
menut
mender
##zzzz
##epeto
highlight
galakkan
parkiran
dprimposto
tlah
username
krism
modalnya
termahal
##aaaan
penipu
pukuli
visioner
##idur
sebangsa
##kiv
anung
siber
rssa
berdo
tarok
perburuk
##oek
##tay
prok
berdepan
##antol
silence
mnurut
diperkatakan
kadiv
memiskinkan
##ebutuhan
diberlakukannya
jeong
dilibas
perkenankan
crystal
##olimi
kembalian
nduwe
sebeg
debt
##ojol
alamin
teriaknya
diamond
##𝗿𝗮
pamp
panda
memancang
knal
ipw
menkosaurus
kumham18
berjilid
hapsoro
mewawancarai
##reet
spmb
ema
ditipu
infok
developer
rice
teruji
kendeng
sabu
kiro
antis
kesurupan
aum
##elok
sebong
##inalisasi
runyam
sapinya
survival
assalamualaikum
blockchain
menyambangi
sapa
korm
yoi
bearded
rung
##emor
keberagaman
kesemp
melar
##eyong
rasial
ㅤㅤㅤㅤㅤㅤ
fank
hert
semog
ayuk
dekor
eskrim
cetek
terbebani
syaratnya
djin
yallah
dicontoh
jln
##ettt
otomasi
beautiful
should
koko
##emanan
##1000
##iho
##oreksi
##egu
anno
dipantau
handsome
senengnya
mardigu
kzl
effect
empuk
menaati
amj
##stabil
pangandaran
amazing
275
lamar
hyunk
hanj
##0p
disamp
investasiuntuk
mikir
nulis
sandang
wala
seminar2
nurhadi
tiongh
artis2
terkontrol
orif
protocol
lele
aksesoris
2thn
kekey
##ompeten
sape
rakyatbutuh
paparkan
dihangatkan
manajeme
perlomb
hoki
quiz
bbrpa
##bebas
mesyuarat
##𝒊𝒏
diwilayah
bkl
##midji
sutarmidji
seumuran
ekonomikhilafah
tercukupi
nabrak
##cat
digi
wibu
headline
achie
##kivlan
things
##𝕣𝕒
pool
daerahku
healing
client
memandangkan
##law
bidik
nyambi
traveloka
separ
ngunu
kahkahkah
1d
bakalan
##yalah
##ipendidikan
##arket
pikir2
##enalin
kepri
405
larinya
ujaran
kecukupan
persebaran
##jalan
akutuh
disatu
wahabi
tenar
trainee
diblokir
achi
bae
whaattttt
##aaaah
dee
h5n
##ungin
serib
chels
terbes
palagi
adun
coverall
freelancer
##gulf
##ibit
spun
##pengangguran
##𝕚𝕔
sepr
sijeuni
bumnd
perincian
ohiya
seremoni
arogan
fankit
##wajib
##esai
paks
lembang
ngerubah
situasinya
mngh
epidemiologis
parahnya
tiss
##ager
mengesampingkan
yudian
denger2
jebot
persyaratannya
hack
tercium
uun
perjuangkan
##mpk
mensosial
mewariskan
##gihan
cepetnya
zeni
sutrad
pesebaran
baperan
##ᅵᆫ
diitung
kenek
volunt
penyelundup
t4
adoy
diserah
berkar
rakyatpercayajokowi
jerat
polriuntukindonesia
gambarnya
aktifkan
peraturannya
##idaks
ibukot
ketemunya
investasi2
hajatan
ceunah
jurusannya
##𝒑𝒖
chill
##whel
hokage
smngt
azza
bula
rumahan
##bergerak
##𝕦𝕜
folder
##ampaian
penilaiannya
menganal
stiker
kurir
diujicoba
dilingkungan
𝕤𝕖𝕓
##df
benernya
identif
atasivirus
##𝕚𝕔𝕙
ℂ𝕣𝕒
𝕣𝕚𝕔𝕙
𝕥𝕦𝕜
##jamin
##qyah
classic
sda
##𝕫𝕪
active
menul
##𝕝𝕒𝕜
𝕤𝕖𝕓𝕝𝕒𝕜
belok
ℂ𝕣𝕒𝕫𝕪
𝕥𝕦𝕜𝕒𝕟𝕘
naikan
tebet
kreat
gakerasa
##ohongi
hunting
##uannya
totalitas
joshua
politisasi
gaksi
menag
##onta
saje
dimusuhin
masduki
penyemangat
kudu
matur
memperketat
mainstream
##faidzin
overwhel
##injauan
##ivers
kirimkan
honorer
taneman
babeh
##angatan
tuntaskan
##⠀⠀⠀⠀
temanku
kredibel
stunting
##ecut
mengkritisi
tax
isok
beauty
dirum
##bility
apatah
reiner
eaaa
wet
kadr
zee
##euh
ramadhanindonesia
##95
kry
maker
##ident
kekaya
18k
permusikan
poker
berjil
terstruktur
kolabor
##kringan
katering
hyuk
ketupat
aviation
diributkan
satire
padaha
damn
melegakan
wimcycle
dampingi
##ibaik
dea
kmna
adaptif
storynya
socialdistancing
##lul
temen2nya
interfans
##queen
eits
sekaya
terdiskriminasi
tanganku
rpw
kupat
login
##단
eksportir
bajakan
course
##ibahin
nyantai
pembohong
jatiluhur
timbang
bersamakit
##pemilih
income
##07
##amur
bohongi
psbbgo
ilkom
dies
kemaruk
intoleransi
timbangan
setoran
upt
##ipih
pahamif
bpkp
title
kaliann
##km50
##antikrisis
denting
##yene
spm
loba
riza
pili
lv
rp11
##akesehatan
##upport
contact
both
kepa
diimbau
semeru
infinity
pouch
elpid
carcep
photos
legalitas
##pemuda
ramadhanindonesiaistimewa
blueto
give
nila
sisan
perah
##kep
memfitnah
sedari
mnding
081
mengcovidkan
방탄소
psbbgofood
mabar
ngedit
imannya
friendly
awokw
pengibaran
lewatin
##wet
##fak
adakan
apalah
multines
kedeng
dibenci
##enggalek
elpidipih
##rai
##ekkan
scar
modelan
방탄소년
rintis
loo
micr
prodi
poltek
tatapan
kawinan
jakob
##adesa
bersimpati
serangk
dibelakang
terjerat
shame
stranger
multinesyene
방탄소년단
##ersihkan
ahahah
sadarlah
dilaporin
##lup
##atislam
##adaptasibaru
bersamamu
https
tunjukan
wedi
rasisme
dusta
nyak
##edhy
yok
pesugihan
tempel
##arab
alhamulillah
##tomatik
##isak
##ands
menjijik
##atihan
menyalak
triwulan
kangg
antrian
berkonser
sesimp
hutangan
results
𝘁𝗵
##salah
twitteran
dipidana
dihajar
dicuci
dashing
meneriaki
gataunya
##jawa
##arkn
##rbpn
tindakt
dievaluasi
masal
pelatihannya
trit
##bpjs
shut
physicaldistancing
petrok
dicicil
kepolisan
ngejelasin
filant
terbengkalai
jd
pecundang
##ashopee
##ultan
sekrang
bantu2
keep
buzer
wallp
##rimin
apotek
mendung
cincau
choi
pulpen
overload
##annes
jess
landai
oa
balak
kerjaan
erickthohir
jimat
##2019
jajanan
meterai
##lock
##gol
divira
dilepas2
serbu
##zalim
pasien2
##apetaka
neozone
menjijikkan
𓈈゛
tempatku
kpps
goblo
##2i
##bandung
warah
khong
mudi
twe
tumblr
##umun
meme
adis
dipersilahkan
utan
##erius
seberbahaya
tkt
##┛┃┃
session
##show
antivirus
tertegun
ekspektasi
unsuntukindonesia
suasananya
2get
siapalah
yb
tissue
keringanan
2gb
##siap
##empo
sben
liat2
efeknya
teganya
hibur
buntutnya
bancakan4
##fes
ngikuti
smuanya
gtau
ngelihat
otorit
##dilarang
##vara
sobatkom
safety
kalibata
djmput
##pengayoman
monthly
cwe
lunt
ruqyah
ptpn
digar
omdo
pegadaian
##now
nyelametin
wow
yatuhan
##nadiem
##arram
penyuluh
liburnya
cewe2
diomelin
mekanismenya
berseragam
ngangkat
##odkan
asimilasi
bluetooth
ketatkan
mainin
mif
djp
##ited
kronologinya
prilaku
polrikawaladaptasibaru
##800
abis
##awancara
##auw
membac
memperc
##avi
berani2nya
factory
##fth
semangatnya
pahamifren
hair
traff
sni
selingkuh
ugd
fairy
mewabah
##yes
suksesnya
sukaa
coronaupdate
trunoj
yaaaaa
bene
bersua
mempan
gengsi
woyyy
##install
krismon
pencen
##ancurin
atasiviruscabut
nyemangatin
ondodecides2020
perputaran
dibayarin
ekonomikhilafahantikrisis
a7
yeee
meratapi
langkah2
689
diperhtikan
savekomodo
##haka
oriflame
mlah
##onk
berkongsi
seindonesia
ditest
bijiri
bijiran
sesusah
bergelut
iptu
kopid
##aizin
selokan
awali
##masyarakat
anjirrr
##edean
pulang2
combo
janjian
gandengan
ronta
##dok
pengecut
imbas
disinilah
adminnya
##4nies
##𝒖𝒎
pantengin
gany
kepur
oma
coli
tindaktegas
rampasan
wallpaper
dibac
##walk
menfess
kepikir
carry
gets
seramai
##enggugat
diguyur
idaman
##prabowo
memperburuk
ketegasan
ahahaha
msg
pakaimaskeruntuksemua
##umy
kesekian
unhas
masyrakat
##47
reason
kuad
mahalnya
syaratny
ext
pmerintah
bpom
sumbangsuara
kemahalan
rayuan
kamibersamajkt48
terbarukan
circle
boga
gonta
materai
##ief
##aign
budak2
316
##aff
##brimob
kost
sahabatpengayoman
teuing
fpib
kaleidoskop
berkendara
##daris
dipingg
##taati3m
lokvit2020
banned
diborong
boxing
##egaf
dibangga
berkeluarga
mangkanya
duluan
juv
disiapin
meteran
buny
role
marsudi
maudy
bergantun
##uhu
comission
berseri
pejuangramadhan
indonesiamelawancovid19
uwong
cleaning
petrokimia
saiz
ada2
lol
ada²
##ijau
terin
diperbanyak
metawin
##incer
tenggiri
pekok
##bumnpangan
brompton
wiku
##nga
##𝒍𝒂𝒏
ngah
koleg
gini2
wave
kemenhan
agraris
tgupp
setorf
mageran
selalunya
aamir
gakan
jawat
langat
##naik
##paka
usung
arri
penjahit
silaturahim
wannable
kemakan
multitas
awk
##itya
##udahan
barga
kebangun
bhwa
boseman
netes
acaranya
pemberani
##idigital
pungli
##ininya
##agement
sekaran
bangang
amik
hafal
reshuffle
catering
pnn
dikant
beer
##ipkan
keua
pddog
##malang
gelarnya
bantuannya
sisihkan
pamer
guysss
dekatdihati
aqua
pacarku
aamiinn
duhh
alfamart
merup
ina
disert
kebe
ginii
diprioritas
konsen
##jsjs
##engerti
temanpemilih
etapi
keteteran
demo2
sobat
ketunda
##agh
terus2an
andalkan
najis
gaksih
sdgkan
sirup
eye
lupain
mami
##ervasi
cari2
perlukah
pemanis
cringe
pertaniannya
pulogadung
selebrasi
berniaga
nengok
##edan
pengur
paska
damp
dino
beruk
programnya
kpm
heula
##virtual
tamansari
cpo
problematis
raib
investasisemakin
875
assign
##amak
recehan
terapin
ale
siwon
soda
kesannya
kutunggu
hardship
pompuan
maksudkan
##estro
g20
##note
##iains
sakno
314
iyyar
##startup
selesa
mahasuramudauns
##urate
##ubisnis
penanganannya
kagetan
victim
##55
##murah
rebutan
got7
2nd
mulainya
bikinin
##sosial
viva
pnnu
##akkk
penganggura
suzy
sentuh
ancang
tjandra
aldinar
pejuangramadhanlawancorona
kenikm
##apangankerja
berpenghasilan
mob
##𝒊𝒏𝒌
##uha
kelar
seab
tanggungan
smar
mendis
kolega
planning
getol
kaffah
##𝒑𝒖𝒍𝒂𝒏
menggeluti
##𝒖𝒎𝒑𝒖𝒍𝒂𝒏
rangkuman
tgg
selund
diimbangi
minta2
tesol
heret
hening
gunungk
works
ngus
titipan
##bawahi
bangl
menga
binmas
bloon
nyenengin
announc
memaham
kemaren2
lanj
takarannya
nihhh
##eez
aplikasinya
hidu
rebus
##enjata
garap
##olus
keburu
uduk
tania
pakej
kuping
starterpack
pipis
kepsek
asbun
berdikari
##edug
biadab
dpat
nyelamatin
tragedik
pakis
hertanto
##rng
kawanmu
fic
hpku
##eal
nutupin
berori
mitigasi
sjk
economics
edaily
mahasuramudauns2020
kci
naud
##angkiti
##uktu
tiba²
##ordinary
ite
jabodetabek
investasisemakinsejahtera
nehi
kemaslah
gawean
bbmas
obat2an
##argain
jagakesehatan
vero
267
rkyt
ngerti
kga
##rove
singer
ucapin
cctv
rachbini
sagit
rade
besok2
berhentikan
submisi
membahu
##ukakan
rakyatjag
datangkan
siaapppp
##iim
puebi
medisnya
kbr
rakyatjagarakyat
bahk
mine
namjin
syahwat
buru2nya
##irut
menyebalkan
latah
ehem
dengarkan
##omah
##ewat
sediakan
##jokan
sinergitasbumnpangan
frequently
ngabarin
gunting
rekap
jamannya
galak
uname
nukl
dry
sepuas
0821
cashflow
coronanya
beropini
ngumumin
miras
effendy
seberuntung
alter
guise
guoblok
tanganmu
ditinggalin
knalpot
##embaik
##ampol
psbbnya
notice
feels
i1
obral
##watch
oligark
##iotik
##wujudkan
##bbm
nut
##itive
darimana
369
5t
urghh
bingit
ppds
kehangatan
coret2
nyanyi
disimpen
menghamp
natuna
ngefek
thought
pegun
kna
dibe
##impian
##iak
ingatpesanibu
berbaloi
rj
seda
tha
bebani
skrining
domisil
geger
vibe
lua
##𝐏𝐀
walfaidzin
raiso
pembor
furn
itukan
diingetin
adlah
pembub
rame
round
mugi
kyo
easy
##young
##200
cairkan
dibutuhin
penug
##lyu
recom
##youn
wabarak
does
##viralkan
azmin
scorp
##oain
##akom
explore
litb
trima
##gue
buktikan
selai
dijakarta
lansia
tentram
##┛┃┃┗
multitasking
economy
##sn
masif
tumpul
##ekeo
banci
calon2
melindung
pcrn
creativ
##solus
yaa
pkk
uninstall
303
hasto
##uakbar
##usy
##iraka
kesitu
terlintas
istim
menghembuskan
##anie
commuter
mkan
temenmu
tunda
basw
diliatin
disekolahkan
sili
diorder
##uduga
mencerdaskan
multiv
##reat
nonstop
nagekeo
termo
apt
boti
warning
statistiknya
garasi
bersamalawancovid19
fii
penyintas
ktk
rp14
waiji
##abus
strim
kemul
sunset
berimp
##eklik
persaud
ributin
dihack
ceweknya
##buka
trac
bertek
##abatas
nanem
ndas
ngumpet
ania
##uate
julai
kesalahanku
luring
another
indrawati
alibi
ust
radeen
pmn
bugar
17an
pngn
vdni
tibat
mamam
moratorium
jeng
lending
amiiin
semangaaat
##otak
keda
shol
pencetus
achieve
┏┓
##lusi
bergairah
##unik
keilm
2045
serapet
sajadah
bmnya
overwhelming
bumnbantu
pengalamanku
aeramo
dadar
setu
negati
kebusukan
grim
mater
nget
baruu
menyemp
gapeduli
gilaa
permenhub
showroom
ngontrak
petugasnya
meleset
##▔▔▔▔▔▔▔▔
brip
axa
##loh
ㅠㅠㅠ
##𝕒𝕞
semarak
##irta
perta
rasane
assignment
temuduga
perantau
dikumpul
jgn2
ttap
retno
aaaaaaaaa
┃╱
┃┃
╱▔▔▔▔▔▔▔▔
jap
kumpulkan
╲╲
##𝕥𝕖
##╲╲
diaw
##abdi
copid
##▔▔╲
##╭╮┏┳┓
##╭╮╲╲
╱╱┏┳┓
╱╱╭╮╲╲
##╱╲╲
▔▏┗┻
kuah
▔▏┗┛▕▔
┃╱╱╲╲
┃┃╱╲
╱▔▔▔▔▔▔▔▔▔▔╲
╱╱┏┳┓╭╮┏┳┓
kanto
gusd
ketertinggalan
tambal
mengucap
approved
tragedikemanusiaan
##┻┛▕▔
##kinerja
sabhara
##ostal
##ibah
##kamil
too
views
playing
##┛┃┃┗┻┛▕▔
superv
▔▏┗┻┛┃┃┗┻┛▕▔
##𝕖𝕝𝕒
##awanc
ondo
konsis
growth
uia
vancouver
seked
tenangkan
##mart
gaperna
##tahunj
##ekonomim
bbrapa
##healthy
╱╱╭╮╲╲house
bilan
murahan
bantun
labuan
##108
##eula
ppd
peranc
dikorbankan
raker
jagak
0878
##pertumbuhan
tragedikemanusiaankm50
bisnismu
##44
smbil
neeh
terkuak
yeonjun
##eking
syara
mantau
rasah
mentalitasnya
tibatiba
kiah
##street
242
pgri
kliatan
illaihi
represi
dibandingin
poldakal
tilang
tanding
##uragan
isih
##ontech
mantapp
##izinin
semena
peringati
polriber
eneg
girang
swal
pemimpin2
yokk
bangetttt
##works
merangs
dibimbing
ahir
yoy
𝕪𝕒𝕟𝕘
kpd
##tube
atiku
pdp
##lll
forever
jokowi
𝕌𝕋
##𝔹𝕂
timses
putuskan
aidilfitri
𝕌𝕋𝔹𝕂
terjumpa
##hukum
##𝕦𝕪
##anal
##iklin
busy
accurate
huff
hoo
𝕊𝕠𝕒𝕝
𝕋𝕆
𝕣𝕖𝕝𝕒
𝕤𝕠𝕒𝕝
apri
𝕤𝕒𝕞
##dha
menyehatkan
skin
daftarin
pengerusi
omongin
𝕌𝕋𝔹𝕂𝕦𝕪
𝕣𝕖𝕝𝕒𝕥𝕖
dibenahi
𝕤𝕒𝕞𝕒
━━━━━━━
##odar
biontech
investasipac
ramadh
dicu
cobalah
close
yasudah
trilli
gfriend
##ceng
##vet
berimbas
diinget
ngasilin
imin
penyemb
sistematic
tulah
wila
sks
##itamin
diposisi
rm0
##sekusi
yawning
gaguna
ketolak
umbar
vocal
sukmo
cali
telep
airy
##arisbawahi
brief
pembudidaya
##post
rontok
##ivir
##ahatin
kwan
##uuuuuu
##lain
padan
disipli
gunungkidul
benarkan
sptnya
pendaftar
demokrasimat
tergerak
bandit
primadona
##kitaistimewa
unda
oreo
tapii
resta
dimaaf
retweetnya
gusdurian
gd
smstan
beritain
zonabu
investasipacubisnis
katan
mengah
janganmudik
masuki
gratisss
mewgulf
3500
innailaihi
##gal
danamon
pakenya
serapan
memblud
garage
belur
dude
##ikara
bls
sirik
jumb
apap
dipatuhi
updat
heu
bintaro
##tolak
nerusin
mf
mempertaruhkan
##biasa
ngehek
##kersod
mff
bumdes
toko2
solidnya
cengir
zoo
hayoo
sebegini
iyah
xd
##unyah
phbs
##sesama
compet
congormu
wakapol
##𝗨𝗥
##acity
rm4
curve
lebuh
pendah
maafnya
dimaklumi
kawanku
galon
artisto
ngojol
kia
tup
buday
##stik
mentemen
aci
kominfo
paceklik
kejadiannya
fisip
jajanin
rewel
proker
##kit
##aubat
nakuti
kembalikan
##presiden
sell
271
bkal
##oooooooo
##ytiharkan
lengser
demokrasimatikhilafah
diurutin
rakusnya
dila
tingkatkan
memaki
baleg
gituuu
batangan
alat2
##indir
mutualmilenial
disiplinmalaysia
lgsung
upgrade
piki
sosoan
temanmu
azan
allahuakbar
##goda
veron
##tanpabatas
fsp
ugh
nhk
##ongrong
semogaa
phi
##etek
selamatkan
bgtttt
paleka
provider
##flake
boikot
talian
persedia
shield
##dinanti
ngejaga
##onga
dijahatin
makelar
##plan
perantauan
epic
akak
melenial
menggiurkan
rakya
abnormal
eidal
paranoid
paja
hallah
sukuk
dispensasi
demokrasimatikhilafahdinanti
tetapkan
##ok2
bersam
biggest
kebuka
menyant
idiot
pkm
omongan2
disiplin3mbersamapolri
nov2020
tiketnya
membiasakan
bravo
yunarto
huaa
kisi
𝗕𝗘𝗥𝗦𝗬𝗨𝗞𝗨𝗥
pesepeda
jatuhin
mummy
entrepreneurship
serasa
aidiladha
##pulih
memba
##kaja
honey
investasiharapanbangsa
bajunya
csr
kocek
atasiviruscabutomnibus
investasipacubisnisstartup
cengar
naksir
##jkw
kebalikan
reson
karik
smtr
deser
moa
ditakdirkan
diskrimin
##ukn
[...]
